{"!": 0, "\"": 1, "#": 2, "$": 3, "%": 4, "&": 5, "'": 6, "(": 7, ")": 8, "*": 9, "+": 10, ",": 11, "-": 12, ".": 13, "/": 14, "0": 15, "1": 16, "2": 17, "3": 18, "4": 19, "5": 20, "6": 21, "7": 22, "8": 23, "9": 24, ":": 25, ";": 26, "<": 27, "=": 28, ">": 29, "?": 30, "@": 31, "A": 32, "B": 33, "C": 34, "D": 35, "E": 36, "F": 37, "G": 38, "H": 39, "I": 40, "J": 41, "K": 42, "L": 43, "M": 44, "N": 45, "O": 46, "P": 47, "Q": 48, "R": 49, "S": 50, "T": 51, "U": 52, "V": 53, "W": 54, "X": 55, "Y": 56, "Z": 57, "[": 58, "\\": 59, "]": 60, "^": 61, "_": 62, "`": 63, "a": 64, "b": 65, "c": 66, "d": 67, "e": 68, "f": 69, "g": 70, "h": 71, "i": 72, "j": 73, "k": 74, "l": 75, "m": 76, "n": 77, "o": 78, "p": 79, "q": 80, "r": 81, "s": 82, "t": 83, "u": 84, "v": 85, "w": 86, "x": 87, "y": 88, "z": 89, "{": 90, "|": 91, "}": 92, "~": 93, "¡": 94, "¢": 95, "£": 96, "¤": 97, "¥": 98, "¦": 99, "§": 100, "¨": 101, "©": 102, "ª": 103, "«": 104, "¬": 105, "®": 106, "¯": 107, "°": 108, "±": 109, "²": 110, "³": 111, "´": 112, "µ": 113, "¶": 114, "·": 115, "¸": 116, "¹": 117, "º": 118, "»": 119, "¼": 120, "½": 121, "¾": 122, "¿": 123, "À": 124, "Á": 125, "Â": 126, "Ã": 127, "Ä": 128, "Å": 129, "Æ": 130, "Ç": 131, "È": 132, "É": 133, "Ê": 134, "Ë": 135, "Ì": 136, "Í": 137, "Î": 138, "Ï": 139, "Ð": 140, "Ñ": 141, "Ò": 142, "Ó": 143, "Ô": 144, "Õ": 145, "Ö": 146, "×": 147, "Ø": 148, "Ù": 149, "Ú": 150, "Û": 151, "Ü": 152, "Ý": 153, "Þ": 154, "ß": 155, "à": 156, "á": 157, "â": 158, "ã": 159, "ä": 160, "å": 161, "æ": 162, "ç": 163, "è": 164, "é": 165, "ê": 166, "ë": 167, "ì": 168, "í": 169, "î": 170, "ï": 171, "ð": 172, "ñ": 173, "ò": 174, "ó": 175, "ô": 176, "õ": 177, "ö": 178, "÷": 179, "ø": 180, "ù": 181, "ú": 182, "û": 183, "ü": 184, "ý": 185, "þ": 186, "ÿ": 187, "Ā": 188, "ā": 189, "Ă": 190, "ă": 191, "Ą": 192, "ą": 193, "Ć": 194, "ć": 195, "Ĉ": 196, "ĉ": 197, "Ċ": 198, "ċ": 199, "Č": 200, "č": 201, "Ď": 202, "ď": 203, "Đ": 204, "đ": 205, "Ē": 206, "ē": 207, "Ĕ": 208, "ĕ": 209, "Ė": 210, "ė": 211, "Ę": 212, "ę": 213, "Ě": 214, "ě": 215, "Ĝ": 216, "ĝ": 217, "Ğ": 218, "ğ": 219, "Ġ": 220, "ġ": 221, "Ģ": 222, "ģ": 223, "Ĥ": 224, "ĥ": 225, "Ħ": 226, "ħ": 227, "Ĩ": 228, "ĩ": 229, "Ī": 230, "ī": 231, "Ĭ": 232, "ĭ": 233, "Į": 234, "į": 235, "İ": 236, "ı": 237, "Ĳ": 238, "ĳ": 239, "Ĵ": 240, "ĵ": 241, "Ķ": 242, "ķ": 243, "ĸ": 244, "Ĺ": 245, "ĺ": 246, "Ļ": 247, "ļ": 248, "Ľ": 249, "ľ": 250, "Ŀ": 251, "ŀ": 252, "Ł": 253, "ł": 254, "Ń": 255, "ĠĠ": 256, "ĠĠĠĠ": 257, "in": 258, "Ġt": 259, "ĠĠĠĠĠĠĠĠ": 260, "er": 261, "ĠĠĠ": 262, "on": 263, "Ġa": 264, "re": 265, "at": 266, "st": 267, "en": 268, "or": 269, "Ġth": 270, "ĊĊ": 271, "Ġc": 272, "le": 273, "Ġs": 274, "it": 275, "an": 276, "ar": 277, "al": 278, "Ġthe": 279, "Ġp": 280, "Ġf": 281, "ou": 282, "Ġ=": 283, "is": 284, "ĠĠĠĠĠĠĠ": 285, "ing": 286, "es": 287, "Ġw": 288, "ion": 289, "ed": 290, "ic": 291, "Ġb": 292, "Ġd": 293, "et": 294, "Ġm": 295, "Ġo": 296, "ĉĉ": 297, "ro": 298, "as": 299, "el": 300, "ct": 301, "nd": 302, "Ġin": 303, "Ġh": 304, "ent": 305, "id": 306, "Ġn": 307, "am": 308, "ĠĠĠĠĠĠĠĠĠĠĠ": 309, "Ġto": 310, "Ġre": 311, "--": 312, "Ġ{": 313, "Ġof": 314, "om": 315, "im": 316, "čĊ": 317, "Ġ(": 318, "il": 319, "//": 320, "Ġand": 321, "ur": 322, "se": 323, "Ġl": 324, "ex": 325, "ĠS": 326, "ad": 327, "Ġ\"": 328, "ch": 329, "ut": 330, "if": 331, "**": 332, "Ġ}": 333, "em": 334, "ol": 335, "ĠĠĠĠĠĠĠĠĠĠĠĠĠĠĠĠ": 336, "th": 337, "Ġg": 338, "ig": 339, "iv": 340, "ce": 341, "od": 342, "Ġv": 343, "ate": 344, "ĠT": 345, "ag": 346, "ay": 347, "Ġ*": 348, "ot": 349, "us": 350, "ĠC": 351, "Ġst": 352, "ĠI": 353, "un": 354, "ul": 355, "ue": 356, "ĠA": 357, "ow": 358, "Ġ'": 359, "ew": 360, "Ġ<": 361, "ation": 362, "()": 363, "Ġfor": 364, "ab": 365, "ort": 366, "um": 367, "ame": 368, "Ġis": 369, "pe": 370, "tr": 371, "ck": 372, "âĢ": 373, "Ġy": 374, "ist": 375, "----": 376, "he": 377, "Ġe": 378, "lo": 379, "ĠM": 380, "Ġbe": 381, "ers": 382, "Ġon": 383, "Ġcon": 384, "ap": 385, "ub": 386, "ĠP": 387, "ĠĠĠĠĠĠĠĠĠĠĠĠĠĠĠ": 388, "ass": 389, "int": 390, "ly": 391, "urn": 392, "Ġ$": 393, "av": 394, "port": 395, "ir": 396, "->": 397, "nt": 398, "ction": 399, "end": 400, "Ġde": 401, "ith": 402, "out": 403, "turn": 404, "our": 405, "ĠĠĠĠĠ": 406, "lic": 407, "res": 408, "pt": 409, "==": 410, "Ġthis": 411, "Ġwh": 412, "Ġif": 413, "ĠD": 414, "ver": 415, "age": 416, "ĠB": 417, "ht": 418, "ext": 419, "=\"": 420, "Ġthat": 421, "****": 422, "ĠR": 423, "Ġit": 424, "ess": 425, "ĠF": 426, "Ġr": 427, "os": 428, "and": 429, "Ġas": 430, "ect": 431, "ke": 432, "rom": 433, "Ġ//": 434, "con": 435, "ĠL": 436, "(\"": 437, "qu": 438, "lass": 439, "Ġwith": 440, "iz": 441, "de": 442, "ĠN": 443, "Ġal": 444, "op": 445, "up": 446, "get": 447, "ile": 448, "Ġan": 449, "ata": 450, "ore": 451, "ri": 452, "Ġpro": 453, "ĉĉĉĉ": 454, "ter": 455, "ain": 456, "ĠW": 457, "ĠE": 458, "Ġcom": 459, "Ġreturn": 460, "art": 461, "ĠH": 462, "ack": 463, "import": 464, "ublic": 465, "Ġor": 466, "est": 467, "ment": 468, "ĠG": 469, "able": 470, "Ġ-": 471, "ine": 472, "ill": 473, "ind": 474, "ere": 475, "::": 476, "ity": 477, "Ġ+": 478, "Ġtr": 479, "elf": 480, "ight": 481, "('": 482, "orm": 483, "ult": 484, "str": 485, "..": 486, "\",": 487, "Ġyou": 488, "ype": 489, "pl": 490, "Ġnew": 491, "Ġj": 492, "ĠĠĠĠĠĠĠĠĠĠĠĠĠĠĠĠĠĠĠ": 493, "Ġfrom": 494, "Ġex": 495, "ĠO": 496, "ld": 497, "Ġ[": 498, "oc": 499, "Ġse": 500, "Ġle": 501, "--------": 502, ".s": 503, "',": 504, "ant": 505, "Ġat": 506, "ase": 507, ".c": 508, "Ġch": 509, "</": 510, "ave": 511, "ang": 512, "Ġare": 513, "Ġint": 514, "âĢĻ": 515, "_t": 516, "ert": 517, "ial": 518, "act": 519, "ive": 520, "ode": 521, "ost": 522, "Ġclass": 523, "Ġnot": 524, "og": 525, "ord": 526, "alue": 527, "all": 528, "ff": 529, "ont": 530, "ime": 531, "are": 532, "ĠU": 533, "Ġpr": 534, "Ġ:": 535, "ies": 536, "ize": 537, "ure": 538, "Ġby": 539, "ire": 540, ".p": 541, "Ġsh": 542, "ice": 543, "ast": 544, "ption": 545, "tring": 546, "ok": 547, "__": 548, "cl": 549, "##": 550, "Ġhe": 551, "ard": 552, ").": 553, "Ġ@": 554, "iew": 555, "ĉĉĉ": 556, "Ġwas": 557, "ip": 558, "this": 559, "Ġu": 560, "ĠThe": 561, "ide": 562, "ace": 563, "ib": 564, "ac": 565, "rou": 566, "Ġwe": 567, "ject": 568, "Ġpublic": 569, "ak": 570, "ve": 571, "ath": 572, "oid": 573, "ust": 574, "que": 575, "Ġres": 576, "))": 577, "'s": 578, "Ġk": 579, "ans": 580, "yst": 581, "unction": 582, "********": 583, "Ġi": 584, "Ġus": 585, "pp": 586, "one": 587, "ail": 588, "====": 589, "name": 590, "Ġstr": 591, "Ġ/": 592, "Ġ&": 593, "ach": 594, "div": 595, "ystem": 596, "ell": 597, "Ġhave": 598, "err": 599, "ould": 600, "ull": 601, "pon": 602, "ĠJ": 603, "_p": 604, "Ġ==": 605, "ign": 606, "St": 607, "Ġpl": 608, "form": 609, "put": 610, "ount": 611, "dd": 612, "ite": 613, "Ġget": 614, "rr": 615, "ome": 616, "ĠâĢ": 617, "aram": 618, "cc": 619, "Ġ*/": 620, "ER": 621, "In": 622, "les": 623, "_s": 624, "ong": 625, "ie": 626, "Ġcan": 627, "ĠV": 628, "erv": 629, "pr": 630, "Ġun": 631, "row": 632, "ber": 633, "Ġdo": 634, "ll": 635, "Ġel": 636, "Ġself": 637, "ated": 638, "ary": 639, "Ġ.": 640, "']": 641, "ud": 642, "Ġen": 643, "ĠTh": 644, "ĠĠĠĠĠĠĠĠĠĠĠĠĠĠĠĠĠĠĠĠĠĠĠ": 645, "te": 646, "_c": 647, "uct": 648, "Ġab": 649, "ork": 650, "Ġ#": 651, "aw": 652, "ress": 653, "ob": 654, "Name": 655, "app": 656, "['": 657, "Ġall": 658, "ory": 659, "ition": 660, "ance": 661, "ear": 662, "Ġcont": 663, "vent": 664, "ia": 665, "Ġwill": 666, "IN": 667, "ĠĠĠĠĠĠĠĠĠ": 668, "return": 669, "data": 670, "Re": 671, "ple": 672, "ild": 673, "ther": 674, "Ġyour": 675, "($": 676, "Ġout": 677, "),": 678, "Ġhas": 679, "String": 680, "so": 681, "Ġup": 682, "ax": 683, "Ġdef": 684, "Ġbo": 685, "ge": 686, "alse": 687, "ON": 688, "per": 689, "ich": 690, "Ġbut": 691, "ĠĊ": 692, "Ġ_": 693, "add": 694, "quest": 695, "odel": 696, "self": 697, "ery": 698, "ft": 699, "ens": 700, "////": 701, "ake": 702, ".C": 703, "Ġgo": 704, "Ġfunction": 705, "ĠK": 706, "ivate": 707, "Ġim": 708, "Ġconst": 709, ".t": 710, "Ġvoid": 711, "Ġset": 712, "ĠSystem": 713, "cri": 714, "li": 715, ".m": 716, "ally": 717, "set": 718, "ep": 719, "âĢĻs": 720, "bo": 721, "def": 722, "Ġme": 723, "Ġ!": 724, "atch": 725, "\">": 726, "ec": 727, "ĠIn": 728, "ph": 729, "Ġ|": 730, "Ġvar": 731, "ence": 732, "Id": 733, "ree": 734, "ink": 735, "lect": 736, "ug": 737, "eth": 738, "Ġelse": 739, "----------------": 740, "cont": 741, "Ġso": 742, "atic": 743, "Ġlo": 744, "pro": 745, "ton": 746, "ss": 747, "own": 748, "abel": 749, "oint": 750, "ous": 751, "eld": 752, "ST": 753, "The": 754, "ĠĠĠĠĠĠĠĠĠĠĠĠĠĠĠĠĠĠĠĠĠĠĠĠĠĠĠĠĠĠĠĠ": 755, "RE": 756, "\":": 757, "olor": 758, "tp": 759, "eg": 760, "key": 761, "ude": 762, "ĠSt": 763, "ound": 764, "Ġar": 765, "ener": 766, "ser": 767, "bject": 768, "essage": 769, "fer": 770, "Ġmore": 771, "ations": 772, "ents": 773, "Ġhis": 774, "Ġthey": 775, ".S": 776, "ĠY": 777, "use": 778, "ne": 779, "ish": 780, "old": 781, "_d": 782, "io": 783, "ield": 784, "Ġper": 785, "Cont": 786, "ings": 787, "####": 788, "Ġdata": 789, "Ġsa": 790, "ef": 791, "fo": 792, "Ġone": 793, "eng": 794, "Ġdis": 795, "AT": 796, "Ġname": 797, "Ġtrue": 798, "val": 799, "led": 800, ".f": 801, "Ġne": 802, "Ġend": 803, ".T": 804, "cre": 805, "ark": 806, "log": 807, "Ex": 808, "error": 809, "urre": 810, "ange": 811, "Ġnull": 812, "rray": 813, "Ġmy": 814, "pan": 815, "ict": 816, "ator": 817, "View": 818, "List": 819, "âĢĿ": 820, "Ġpre": 821, "Ġx": 822, "clude": 823, "arg": 824, "ov": 825, ".h": 826, "Ġ>": 827, "Ġtheir": 828, "')": 829, "irst": 830, "ick": 831, "gh": 832, "LE": 833, "OR": 834, "Ġprivate": 835, "tem": 836, "čĊčĊ": 837, "user": 838, "Ġ)": 839, "com": 840, ".A": 841, "Ġid": 842, "read": 843, "Ġwho": 844, "Ġtime": 845, "Ġman": 846, "ry": 847, "========": 848, "roup": 849, "rop": 850, "public": 851, "vel": 852, "umber": 853, "ble": 854, "Ġwhich": 855, "****************": 856, "Ġany": 857, "Ġfalse": 858, "we": 859, "Ġvalue": 860, "Ġli": 861, "\")": 862, "nder": 863, "gr": 864, "Ġno": 865, "param": 866, "fig": 867, ".com": 868, "Ġapp": 869, "ions": 870, ".D": 871, "ĠCh": 872, "Ġabout": 873, "Ġadd": 874, "Ġsu": 875, "Ġstring": 876, "ID": 877, "Ġover": 878, "string": 879, ".l": 880, "ource": 881, "Ġqu": 882, "ĠString": 883, "ca": 884, "SE": 885, "Ġro": 886, "sh": 887, "ual": 888, "Type": 889, "son": 890, "new": 891, "ern": 892, "Ġag": 893, "AR": 894, "].": 895, "Ġ?": 896, "ical": 897, "Ġdes": 898, "uth": 899, "ix": 900, "ays": 901, "Ġtype": 902, "'t": 903, "ault": 904, "Ġinter": 905, "var": 906, ".b": 907, "Ġpart": 908, ".d": 909, "urrent": 910, "IT": 911, "EN": 912, "enc": 913, "(f": 914, "ra": 915, "value": 916, "cho": 917, "utton": 918, "ose": 919, "ater": 920, "Ã©": 921, "reate": 922, "oll": 923, "pos": 924, "yle": 925, "ng": 926, "AL": 927, "using": 928, "ames": 929, "ates": 930, "ely": 931, "Ġwork": 932, "Ġem": 933, "inal": 934, "Ġsp": 935, "Ġwhen": 936, "ĠĠĠĠĠĠ": 937, "to": 938, "quire": 939, "indow": 940, "lement": 941, "pect": 942, "ash": 943, "[i": 944, "Ġuse": 945, ".F": 946, "pec": 947, "Ġad": 948, "ove": 949, "ception": 950, "ength": 951, "include": 952, "ader": 953, "ĠĠĠĠĠĠĠĠĠĠĠĠĠĠĠĠĠĠĠĠĠĠĠĠĠĠĠ": 954, "atus": 955, "Th": 956, "itle": 957, "rit": 958, "void": 959, "().": 960, "Ġoff": 961, "Ġother": 962, "ms": 963, "Ġbeen": 964, "Ġte": 965, "ml": 966, "co": 967, "nc": 968, "ervice": 969, "Ġ%": 970, "ann": 971, "ade": 972, "ĊĊĊĊ": 973, "lock": 974, "const": 975, "ponse": 976, "Ġsup": 977, "++": 978, "date": 979, "Ġacc": 980, "Ġhad": 981, "Ġbu": 982, "ĠRe": 983, "Ġwere": 984, "Ġfile": 985, "Ġwould": 986, "ĠâĢľ": 987, "ven": 988, "iss": 989, "Ġour": 990, "class": 991, "raw": 992, "Ġyear": 993, "Data": 994, "Ġval": 995, "Ġsome": 996, "fter": 997, "ys": 998, "round": 999, "view": 1000, "Ġpe": 1001, "Ġthere": 1002, "Ġsaid": 1003, "du": 1004, "of": 1005, "line": 1006, "/*": 1007, "duct": 1008, "Ġher": 1009, "ĠĠĠĠĠĠĠĠĠĠĠĠĠ": 1010, "Res": 1011, "Ġco": 1012, "Ġcomm": 1013, "ise": 1014, "min": 1015, "ĠĠĠĠĊ": 1016, "#include": 1017, "ethod": 1018, ".P": 1019, "ute": 1020, "Ġass": 1021, "Int": 1022, "ask": 1023, "loc": 1024, "Ġlike": 1025, "ody": 1026, "Ġlet": 1027, "load": 1028, "Ġam": 1029, "rol": 1030, "Ġgr": 1031, "yp": 1032, "Ġalso": 1033, "ĠIt": 1034, "url": 1035, "ific": 1036, "ors": 1037, "_n": 1038, "igh": 1039, "Ġthan": 1040, "Com": 1041, "AN": 1042, "UL": 1043, "ating": 1044, "ĠThis": 1045, "ref": 1046, "_S": 1047, "Ġstatic": 1048, "roll": 1049, "Ġjust": 1050, "Ġresult": 1051, "ian": 1052, "idth": 1053, "Ġthem": 1054, "der": 1055, "reak": 1056, "Con": 1057, "://": 1058, "ule": 1059, "...": 1060, "arch": 1061, "ement": 1062, "ush": 1063, "ense": 1064, "arr": 1065, "Ġinto": 1066, "cess": 1067, "amp": 1068, "ied": 1069, "ument": 1070, "Ġ\\": 1071, "],": 1072, "wo": 1073, "als": 1074, "Ġwhat": 1075, "anc": 1076, "Value": 1077, "='": 1078, "olum": 1079, "Ġpos": 1080, "ages": 1081, "ayer": 1082, "Ġsc": 1083, "ues": 1084, "Ġlist": 1085, "(s": 1086, "Ġcase": 1087, "Ch": 1088, "ĉĉĉĉĉ": 1089, "////////": 1090, "ponent": 1091, "Ġz": 1092, "Ġkn": 1093, "let": 1094, "DE": 1095, "red": 1096, "Ġfe": 1097, "Ġ,": 1098, "(t": 1099, "Ġfirst": 1100, "word": 1101, "Ġimport": 1102, "Ġact": 1103, "Ġchar": 1104, "CT": 1105, "ĠTr": 1106, "ople": 1107, "={": 1108, "ient": 1109, "cent": 1110, ".j": 1111, "lection": 1112, "Ġonly": 1113, "Ġprint": 1114, "mer": 1115, ".W": 1116, "ock": 1117, "Ġ--": 1118, "Text": 1119, "Ġop": 1120, "ank": 1121, "Ġits": 1122, "Ġback": 1123, "[\"": 1124, "Ġneed": 1125, "Ġcl": 1126, "Ġsub": 1127, "Ġla": 1128, "((": 1129, ".\"": 1130, "Object": 1131, "Ġstart": 1132, "file": 1133, "ner": 1134, "ey": 1135, "Ġuser": 1136, "Ġent": 1137, "ĠCom": 1138, "its": 1139, "ĠCon": 1140, "ouble": 1141, "ower": 1142, "item": 1143, "very": 1144, "ĠWe": 1145, "lick": 1146, "ĠQ": 1147, "php": 1148, "ttp": 1149, "':": 1150, "ics": 1151, "Ġunder": 1152, ".L": 1153, ");": 1154, "ices": 1155, "Ġreg": 1156, "SS": 1157, "Ġthen": 1158, "reat": 1159, "ious": 1160, ".G": 1161, "ek": 1162, "irect": 1163, "heck": 1164, "cript": 1165, "ning": 1166, "ĠUn": 1167, "Ġmay": 1168, "ĠWh": 1169, "Bo": 1170, "Item": 1171, "struct": 1172, "ream": 1173, "ible": 1174, "loat": 1175, "Ġorg": 1176, "und": 1177, "sum": 1178, "_in": 1179, "../": 1180, "Ġhow": 1181, "rite": 1182, "To": 1183, "ww": 1184, "Ġpeople": 1185, "index": 1186, ".n": 1187, "http": 1188, "(m": 1189, "ector": 1190, "Ġind": 1191, "Ġjav": 1192, "ĠHe": 1193, "ful": 1194, "ole": 1195, "Ġshould": 1196, "opy": 1197, "elp": 1198, "ier": 1199, "_name": 1200, "erson": 1201, "ION": 1202, "ote": 1203, "Ġtest": 1204, "Ġbet": 1205, "rror": 1206, "ular": 1207, "ãĢ": 1208, "ĠÐ": 1209, "bs": 1210, "ting": 1211, "Ġmake": 1212, "Tr": 1213, "Ġafter": 1214, "arget": 1215, "RO": 1216, "olumn": 1217, "rc": 1218, "_re": 1219, "define": 1220, "Ġright": 1221, "right": 1222, "day": 1223, "Ġlong": 1224, "[]": 1225, "(p": 1226, "td": 1227, "cond": 1228, "ĠPro": 1229, "Ġrem": 1230, "ptions": 1231, "vid": 1232, ".g": 1233, "Ġext": 1234, "pace": 1235, "mp": 1236, "Ġmin": 1237, "stance": 1238, "air": 1239, "action": 1240, "wh": 1241, "type": 1242, "util": 1243, "ait": 1244, "<?": 1245, "IC": 1246, "text": 1247, "Ġph": 1248, "Ġfl": 1249, ".M": 1250, "ccess": 1251, "br": 1252, "fore": 1253, "ersion": 1254, "ateg": 1255, "Ġloc": 1256, "ins": 1257, "-s": 1258, "trib": 1259, "ĠInt": 1260, "Ġarray": 1261, ",\"": 1262, "Pro": 1263, "(c": 1264, "ession": 1265, "Ġshe": 1266, "\"]": 1267, "aph": 1268, "Ġexp": 1269, "erty": 1270, "ĠSe": 1271, "Ġpar": 1272, "unc": 1273, "ET": 1274, "Ġread": 1275, "print": 1276, "Ġrel": 1277, "Ġform": 1278, "Ġdr": 1279, "input": 1280, "Ġtrans": 1281, "########": 1282, "order": 1283, "By": 1284, "Ġaw": 1285, "ities": 1286, "uff": 1287, "play": 1288, "ĠâĢĵ": 1289, "Ġwant": 1290, "Ġcomp": 1291, "ments": 1292, "Ġ||": 1293, "az": 1294, "be": 1295, "Ġnumber": 1296, "Ġrequire": 1297, "ĠEx": 1298, "Ġcol": 1299, "Ġkey": 1300, "ember": 1301, "Ġtwo": 1302, "Ġsize": 1303, "Ġwhere": 1304, "UT": 1305, "result": 1306, "ĠĠĠĠĠĠĠĠĠĠĠĠĠĠĠĠĠĠĠĠĠĠĠĠĠĠĠĠĠĠĠ": 1307, "ough": 1308, "orld": 1309, "ood": 1310, "uch": 1311, "ative": 1312, "ger": 1313, "arent": 1314, "Ġ/*": 1315, "Ġarg": 1316, "Ġwhile": 1317, "Ġrec": 1318, "Ġdif": 1319, "State": 1320, "Ġspec": 1321, "ride": 1322, "Ġlook": 1323, "AM": 1324, "ility": 1325, "eter": 1326, "âĢĻt": 1327, "ĊĊĊ": 1328, "ayout": 1329, "--------------------------------": 1330, "ager": 1331, "Ġcould": 1332, "Ġbr": 1333, "ends": 1334, "ures": 1335, "Ġknow": 1336, "ets": 1337, "ĠIf": 1338, "ĠSh": 1339, ".w": 1340, "back": 1341, "Ġser": 1342, "Ġfr": 1343, "Ġhand": 1344, "Ind": 1345, "Im": 1346, "Ġmost": 1347, "Ġtry": 1348, "Ġnow": 1349, "rough": 1350, "ackage": 1351, "Ġhim": 1352, "._": 1353, "ify": 1354, "Ġbreak": 1355, "ren": 1356, "itt": 1357, "Ġap": 1358, "(n": 1359, "ĠYou": 1360, "-m": 1361, "Ġevery": 1362, "ustom": 1363, "lient": 1364, "ocument": 1365, "cription": 1366, "Error": 1367, "-b": 1368, "Ð¾": 1369, "][": 1370, "trans": 1371, "Ġpoint": 1372, "Ġfil": 1373, "Time": 1374, "Ġmod": 1375, "Ġ->": 1376, "Ġerror": 1377, "ah": 1378, "Ġtext": 1379, "roller": 1380, "lose": 1381, "Ġpol": 1382, "></": 1383, "Ġshow": 1384, "User": 1385, "ased": 1386, "Ġfind": 1387, "Ð°": 1388, "ED": 1389, "span": 1390, "enu": 1391, "Ġcurrent": 1392, "Ġused": 1393, "cept": 1394, "clud": 1395, "Ġplay": 1396, "Ġlog": 1397, "ution": 1398, "fl": 1399, "Ġsee": 1400, "indows": 1401, "Ġhelp": 1402, "Ġthese": 1403, "Ġpass": 1404, "Ġdown": 1405, "Ġeven": 1406, "ason": 1407, "uild": 1408, "from": 1409, "(d": 1410, "Ġbl": 1411, "label": 1412, "else": 1413, "Ðµ": 1414, "ized": 1415, "(),": 1416, "Ġob": 1417, "Ġitem": 1418, "ump": 1419, "UR": 1420, "orn": 1421, "Ġdon": 1422, "Se": 1423, "man": 1424, "ample": 1425, "tn": 1426, "================": 1427, "He": 1428, "gram": 1429, "Ġdid": 1430, "wn": 1431, "iver": 1432, "Ġsm": 1433, "Ġthrough": 1434, "ĠAn": 1435, "che": 1436, "Ġinv": 1437, "ouse": 1438, "Ġes": 1439, "ĠNew": 1440, "export": 1441, "mary": 1442, "uto": 1443, "ler": 1444, "Ġlast": 1445, "Ġevent": 1446, "try": 1447, "ï¼": 1448, "ily": 1449, "igned": 1450, "ines": 1451, "ollow": 1452, "icense": 1453, "sole": 1454, "lear": 1455, "Ġagain": 1456, "Ġhigh": 1457, "html": 1458, "Index": 1459, "uthor": 1460, "Ġline": 1461, "Event": 1462, "Ġdoes": 1463, "itial": 1464, "Ġcr": 1465, "ars": 1466, "Ġtem": 1467, "cause": 1468, "face": 1469, "Ġ`": 1470, "ature": 1471, "ected": 1472, "ES": 1473, "ister": 1474, "ĉĊ": 1475, "Ġbefore": 1476, "ale": 1477, "other": 1478, "Ġbecause": 1479, "roid": 1480, "Ġed": 1481, "ik": 1482, "reg": 1483, "ĠDe": 1484, "Ġdist": 1485, "Ġstate": 1486, "Ġcons": 1487, "rint": 1488, "att": 1489, "Ġhere": 1490, "ined": 1491, "Ġfinal": 1492, "Ġ\"\"": 1493, "Key": 1494, "LO": 1495, "Ġdel": 1496, "pty": 1497, "thing": 1498, "ĠAnd": 1499, "Ġrun": 1500, "ĠX": 1501, "ym": 1502, "Ġvery": 1503, "ces": 1504, "ared": 1505, "ward": 1506, "list": 1507, "ited": 1508, "olog": 1509, "itch": 1510, "Box": 1511, "ife": 1512, "Ġac": 1513, "Ġmodel": 1514, "Ġmon": 1515, "Ġway": 1516, "lete": 1517, "Ġcall": 1518, "Ġatt": 1519, "Ġcal": 1520, "vert": 1521, "Ġdec": 1522, "lease": 1523, "oun": 1524, "fr": 1525, "formation": 1526, "etail": 1527, "Ġnum": 1528, "aj": 1529, "Ġwell": 1530, "Ġobject": 1531, "ĠAs": 1532, "Ġyears": 1533, "Color": 1534, "IS": 1535, "Ġdefault": 1536, "Wh": 1537, "Ġins": 1538, "aint": 1539, "Ġsim": 1540, "ĠAr": 1541, "mon": 1542, "til": 1543, "):": 1544, "Set": 1545, "atter": 1546, "Ġview": 1547, "Ġpres": 1548, "array": 1549, "We": 1550, "At": 1551, "Ġbel": 1552, "Ġmany": 1553, "Man": 1554, "ender": 1555, "Ġbeing": 1556, "Ġgood": 1557, "ĉĉĉĉĉĉ": 1558, "ational": 1559, "ware": 1560, "Ġusing": 1561, "Ġ:=": 1562, "ists": 1563, "lish": 1564, "Ġstud": 1565, "ĠAl": 1566, "Ġgu": 1567, "config": 1568, "uring": 1569, "time": 1570, "oken": 1571, "Ġrequest": 1572, "Ġchild": 1573, "ĠÃ": 1574, "lob": 1575, "Ġparam": 1576, "Ġecho": 1577, "function": 1578, "********************************": 1579, "ps": 1580, "Element": 1581, "alk": 1582, "lication": 1583, "by": 1584, "Size": 1585, "rawing": 1586, "Ġperson": 1587, "ĠĠĠĠĠĠĠĠĠĠĠĠĠĠĠĠĠ": 1588, "object": 1589, "ince": 1590, "En": 1591, "File": 1592, "uf": 1593, "ffect": 1594, "AC": 1595, "Ġstyle": 1596, "summary": 1597, "Ġque": 1598, "Ġ($": 1599, "Model": 1600, "ident": 1601, "Ġmethod": 1602, "IL": 1603, "ott": 1604, "less": 1605, "ING": 1606, "Ġ()": 1607, "Ġexpect": 1608, "ync": 1609, "package": 1610, "urs": 1611, "Ġprot": 1612, "./": 1613, "pre": 1614, "ma": 1615, "Ġsur": 1616, "Ġfound": 1617, "Info": 1618, "par": 1619, "imes": 1620, ".e": 1621, "ains": 1622, "Ġpost": 1623, "-d": 1624, "olean": 1625, "Ġsl": 1626, "PE": 1627, "Ġsuch": 1628, "select": 1629, "ainer": 1630, "Ġthink": 1631, "Ġdiffer": 1632, ".r": 1633, "FF": 1634, "ool": 1635, "plate": 1636, "qual": 1637, "ĠFor": 1638, "Ġmuch": 1639, "uc": 1640, "odule": 1641, "Ġsom": 1642, "Ġhttp": 1643, "ĠList": 1644, "Ġcount": 1645, "Ġinst": 1646, "char": 1647, "mit": 1648, "aking": 1649, "Ġgener": 1650, "px": 1651, "vice": 1652, "_data": 1653, "ĠNULL": 1654, "idd": 1655, "ãĢĤ": 1656, "Ġmed": 1657, "org": 1658, "ider": 1659, "ache": 1660, "work": 1661, "Ġcheck": 1662, "ween": 1663, "the": 1664, "ants": 1665, "><": 1666, ".B": 1667, "-c": 1668, "Ġopen": 1669, "Ġest": 1670, "ĠĠĠĠĠĠĠĠĊ": 1671, "Ġnext": 1672, "IM": 1673, "ÑĤ": 1674, "OT": 1675, "Ã³": 1676, "Ġfollow": 1677, "content": 1678, "ĠĠĠĠĠĠĠĠĠĠĠĠ": 1679, "Ġinclud": 1680, "HE": 1681, "ĠRes": 1682, "Ð¸": 1683, "Ġcar": 1684, "ypes": 1685, "image": 1686, "Un": 1687, "Ġbool": 1688, "AD": 1689, "Ġgame": 1690, "rows": 1691, "*/": 1692, "velop": 1693, "Ġpath": 1694, "ision": 1695, "Ġeach": 1696, "ĠPl": 1697, "Path": 1698, "nection": 1699, "Ġav": 1700, "').": 1701, "Ġsupport": 1702, "ENT": 1703, "rem": 1704, "\").": 1705, "Ġown": 1706, "Ġcor": 1707, "count": 1708, "miss": 1709, "ually": 1710, "Ġmem": 1711, "std": 1712, "ience": 1713, "search": 1714, "Form": 1715, "Ġsex": 1716, "ename": 1717, "Ġsign": 1718, "Ġet": 1719, "ĠĠĠĠĠĠĠĠĠĠ": 1720, "','": 1721, "ĠApp": 1722, "Ġthose": 1723, "off": 1724, "Ġerr": 1725, "Ġsystem": 1726, "Ġbest": 1727, "code": 1728, "Ġsame": 1729, "Ġdi": 1730, "uss": 1731, "Ġcreate": 1732, "ather": 1733, "Array": 1734, ".in": 1735, "fe": 1736, "Service": 1737, "UN": 1738, "ats": 1739, "ĠZ": 1740, "alth": 1741, "Ġmade": 1742, "true": 1743, "AB": 1744, "Ġmark": 1745, "rid": 1746, "ified": 1747, "yn": 1748, "press": 1749, "Ġgroup": 1750, "Ġfin": 1751, "ĠLicense": 1752, "Field": 1753, "eger": 1754, "Ġworld": 1755, "iness": 1756, "ty": 1757, "Ġprocess": 1758, "(b": 1759, "Ġcre": 1760, "arn": 1761, "ives": 1762, "Ġmain": 1763, "ideo": 1764, "AG": 1765, "valid": 1766, "PI": 1767, "Ġcolor": 1768, "Ġreport": 1769, "Ġtake": 1770, "rib": 1771, "OM": 1772, "Ġday": 1773, "Ġsk": 1774, "bers": 1775, ".Add": 1776, "oot": 1777, "Image": 1778, "Ġcomple": 1779, "ollection": 1780, "Ġtop": 1781, "Ġfree": 1782, "AS": 1783, "De": 1784, "ĠOn": 1785, "IG": 1786, "eta": 1787, "Date": 1788, "Ġaction": 1789, "Over": 1790, "itor": 1791, "ĠĠĠĠĠĠĠĠĠĠĠĠĠĠĠĠĠĠĠĠĠĠĠĠĠĠĠĠĠĠĠĠĠĠĠ": 1792, "not": 1793, "Ġindex": 1794, "her": 1795, "icon": 1796, "On": 1797, "ivity": 1798, "mand": 1799, "OL": 1800, "Ġreal": 1801, "Ġmax": 1802, "land": 1803, "....": 1804, "raph": 1805, "Ġbuild": 1806, "leg": 1807, "assword": 1808, "âĢ¦": 1809, "ook": 1810, "uck": 1811, "Ġmessage": 1812, "test": 1813, "ivers": 1814, "Ġinput": 1815, "Ġart": 1816, "Ġbetween": 1817, "Get": 1818, "enter": 1819, "ground": 1820, "ene": 1821, "Ã¡": 1822, "Node": 1823, "(i": 1824, "Class": 1825, "for": 1826, "ĠâĢĶ": 1827, "ten": 1828, "oin": 1829, "Ġke": 1830, "ui": 1831, "ĠIN": 1832, "Ġtable": 1833, "sub": 1834, "ĠLe": 1835, "Ġhead": 1836, "Ġmust": 1837, "////////////////": 1838, "Context": 1839, "Ġorder": 1840, "Ġmov": 1841, "over": 1842, "Ġcontin": 1843, "Ġsay": 1844, "static": 1845, "pany": 1846, "Ġter": 1847, "head": 1848, "rg": 1849, "Ġproduct": 1850, "This": 1851, ".âĢĿ": 1852, "ĠBut": 1853, "loy": 1854, "Ġdouble": 1855, "sg": 1856, "Ġplace": 1857, ".x": 1858, "message": 1859, "Ġinformation": 1860, "private": 1861, "Ġoper": 1862, "ced": 1863, "db": 1864, "\"></": 1865, "Param": 1866, "icle": 1867, "Ġweek": 1868, "Ġprop": 1869, "table": 1870, "place": 1871, "Prop": 1872, "ĠAll": 1873, "els": 1874, "box": 1875, ".R": 1876, "ĠTo": 1877, "iter": 1878, "Sh": 1879, "uration": 1880, "older": 1881, "_list": 1882, "come": 1883, "Ġsw": 1884, "ization": 1885, "bl": 1886, "Ġprogram": 1887, "(e": 1888, "ape": 1889, "check": 1890, "Ġund": 1891, "ategory": 1892, "ags": 1893, "Ġresponse": 1894, "US": 1895, "request": 1896, "Ġstruct": 1897, "escription": 1898, "Ġcode": 1899, "uffer": 1900, "Ġwithout": 1901, "lobal": 1902, "Manager": 1903, "ilter": 1904, "PO": 1905, "option": 1906, "Ġsol": 1907, "akes": 1908, "Message": 1909, "Ġref": 1910, "ever": 1911, "ĠSo": 1912, "aining": 1913, ".append": 1914, "Ġstill": 1915, "Ġprovid": 1916, "Ġassert": 1917, "med": 1918, "Ġcap": 1919, "usiness": 1920, "Ġrep": 1921, "tings": 1922, "ved": 1923, ".N": 1924, "api": 1925, "OD": 1926, "Ġfield": 1927, "iven": 1928, "oto": 1929, "âĢľ": 1930, "col": 1931, "(x": 1932, "ght": 1933, "Result": 1934, "Code": 1935, "link": 1936, "Ġcour": 1937, "An": 1938, "Ġteam": 1939, "ift": 1940, "Ġsecond": 1941, "Ġgoing": 1942, "Ġrange": 1943, "ness": 1944, "Ġfam": 1945, "Ġnil": 1946, "ĠCont": 1947, "ailable": 1948, "utes": 1949, "atab": 1950, "Ġfact": 1951, "Ġvis": 1952, "(&": 1953, "ĠAN": 1954, "Al": 1955, "title": 1956, "CE": 1957, "\\\"": 1958, "irt": 1959, "Ġwrit": 1960, "Ð½": 1961, "ftware": 1962, "ond": 1963, "Ġret": 1964, "osition": 1965, "Ġhome": 1966, "Ġleft": 1967, "args": 1968, "meric": 1969, "Ġdirect": 1970, "oci": 1971, "Pl": 1972, "As": 1973, "ret": 1974, "ado": 1975, "Of": 1976, "chn": 1977, "ĠGet": 1978, "ee": 1979, "ross": 1980, "();": 1981, "____": 1982, "It": 1983, "oute": 1984, "Ġexper": 1985, "chool": 1986, "www": 1987, "},": 1988, "Ġallow": 1989, "ĠÂ": 1990, "())": 1991, "size": 1992, "ism": 1993, "ai": 1994, "tract": 1995, "ane": 1996, "context": 1997, "Ġbeg": 1998, "CH": 1999, "Ġpage": 2000, "hip": 2001, "no": 2002, "core": 2003, "sp": 2004, "Ġdifferent": 2005, "iable": 2006, "ĠMe": 2007, "button": 2008, "ĠIs": 2009, "ervices": 2010, "Ġca": 2011, "Ġaround": 2012, "App": 2013, "ration": 2014, "Ġrece": 2015, "Ġreally": 2016, "Ġimage": 2017, "Ġtarget": 2018, "Ġdep": 2019, "opyright": 2020, "tra": 2021, "ingle": 2022, "ital": 2023, "Ġboth": 2024, "arm": 2025, "=>": 2026, "aterial": 2027, "iled": 2028, "Ġput": 2029, "Qu": 2030, "ÑĢ": 2031, "ung": 2032, "map": 2033, "ĉĉĉĉĉĉĉĉ": 2034, "Ġlevel": 2035, "Component": 2036, "book": 2037, "creen": 2038, "Ġconfig": 2039, "ãģ": 2040, "Or": 2041, "Ġdocument": 2042, "\",\"": 2043, "tribute": 2044, "ux": 2045, "Log": 2046, "ference": 2047, "post": 2048, "_e": 2049, "Ġlocal": 2050, "andom": 2051, "assert": 2052, "Val": 2053, "lected": 2054, "ina": 2055, "atabase": 2056, "Add": 2057, "Ġcontent": 2058, "signed": 2059, "ric": 2060, "Ġfa": 2061, "-f": 2062, "ived": 2063, "Ġquest": 2064, ".ex": 2065, "Ġfloat": 2066, "Ġdevelop": 2067, "Map": 2068, "ading": 2069, "Ġposs": 2070, "UE": 2071, ">(": 2072, "etails": 2073, "Ġtoo": 2074, "Ġextends": 2075, "ĠNone": 2076, "Ġfore": 2077, "format": 2078, "Ġgreat": 2079, "inter": 2080, "cale": 2081, "Ñģ": 2082, "ron": 2083, "iving": 2084, "Ent": 2085, "ency": 2086, "xt": 2087, "oy": 2088, "Ġmonth": 2089, "Ġhapp": 2090, "Ġsuper": 2091, "bar": 2092, "default": 2093, "ords": 2094, "ln": 2095, "ĠInd": 2096, "ases": 2097, "Ġtitle": 2098, "Ġcontext": 2099, "oh": 2100, "-p": 2101, "Em": 2102, "Ġmet": 2103, "Test": 2104, "Ġlife": 2105, "_v": 2106, "ĠUS": 2107, "UI": 2108, "ocation": 2109, "md": 2110, "Ġ]": 2111, "sw": 2112, "Ġincre": 2113, "script": 2114, "ential": 2115, "ways": 2116, ".de": 2117, "Ġcatch": 2118, "ĠAmeric": 2119, "ĠĠĠĠĠĠĠĠĠĠĠĠĠĠ": 2120, "Ġpay": 2121, "plit": 2122, "âĢĶ": 2123, "Ġcoun": 2124, "obj": 2125, "Ġchange": 2126, "ething": 2127, "'re": 2128, "aster": 2129, "los": 2130, "lation": 2131, "ĠĠĊ": 2132, "Le": 2133, "Ã¤": 2134, "({": 2135, "ready": 2136, "ĠNo": 2137, "Ġposition": 2138, "Ġold": 2139, "Ġbook": 2140, "abled": 2141, "bug": 2142, "Hand": 2143, "isplay": 2144, "aving": 2145, "Ġgover": 2146, "Ġversion": 2147, "System": 2148, "nect": 2149, "response": 2150, "Style": 2151, "Up": 2152, "angu": 2153, "Ġthree": 2154, "init": 2155, "ero": 2156, "Ġlaw": 2157, "Ġbase": 2158, "email": 2159, "Ġconf": 2160, "ATE": 2161, "Ġduring": 2162, "tes": 2163, "Ġconsole": 2164, "ĠPr": 2165, "Ġspe": 2166, "ves": 2167, "path": 2168, "ialog": 2169, "dition": 2170, "_to": 2171, "ards": 2172, "Ġagainst": 2173, "etwork": 2174, "ĠPh": 2175, "cur": 2176, "imit": 2177, "With": 2178, "Ġpower": 2179, "ium": 2180, "Ġwom": 2181, "left": 2182, "ources": 2183, "atri": 2184, "ĠIm": 2185, "ĠMan": 2186, "orth": 2187, "${": 2188, "ese": 2189, "Ġiss": 2190, "otal": 2191, "-g": 2192, "ique": 2193, "rame": 2194, "Ġwidth": 2195, "erg": 2196, ")(": 2197, "ittle": 2198, "TR": 2199, "ĠThey": 2200, "ences": 2201, "rl": 2202, "ons": 2203, "Ġlabel": 2204, "-t": 2205, "update": 2206, "anel": 2207, "sc": 2208, "Ġproject": 2209, "Ã¼": 2210, "Ġelement": 2211, "Ġsuccess": 2212, "ĉĉĊ": 2213, "ram": 2214, "ched": 2215, "Ġdate": 2216, "Ġtot": 2217, "All": 2218, "ification": 2219, "Ġtri": 2220, "chem": 2221, "my": 2222, "Ġbig": 2223, "ĠAd": 2224, "ĠAt": 2225, "ots": 2226, "num": 2227, "Act": 2228, "Ġmap": 2229, "era": 2230, "cope": 2231, ".$": 2232, ",âĢĿ": 2233, "Ġpop": 2234, "Ġfew": 2235, "Ġlen": 2236, "uid": 2237, "eters": 2238, "ules": 2239, "ÃŃ": 2240, "source": 2241, "https": 2242, "Ġdem": 2243, "Ġear": 2244, "################": 2245, "Ġmatch": 2246, "ories": 2247, "aces": 2248, "ĠCl": 2249, "Ġnode": 2250, "irc": 2251, "local": 2252, "unity": 2253, "Ġanother": 2254, "<<": 2255, "ogle": 2256, "Ġsit": 2257, "ework": 2258, "TE": 2259, ".I": 2260, "NS": 2261, "ology": 2262, "ought": 2263, ">>": 2264, "Ġcare": 2265, "state": 2266, "Ġeffect": 2267, "++)": 2268, "_file": 2269, "ending": 2270, "Line": 2271, "For": 2272, "ior": 2273, "ĠSc": 2274, "Ġfun": 2275, "])": 2276, "start": 2277, "vious": 2278, "ours": 2279, "Ġleg": 2280, "Ġservice": 2281, "Ġsince": 2282, "iron": 2283, "Label": 2284, "Ġnon": 2285, "Ġlos": 2286, "iction": 2287, "Ġfull": 2288, "acter": 2289, "board": 2290, "gress": 2291, "Ġturn": 2292, "ither": 2293, "Ġbody": 2294, "resh": 2295, "eturn": 2296, "(_": 2297, "yles": 2298, "ormal": 2299, "pi": 2300, "Ġsomething": 2301, "!--": 2302, "uint": 2303, "Ġprodu": 2304, "Ġstand": 2305, "Ġproble": 2306, "Ġavailable": 2307, "mt": 2308, "ĠBl": 2309, "Ġ...": 2310, "Ġblock": 2311, "Input": 2312, "Ġkeep": 2313, "Count": 2314, "open": 2315, "Ġthrow": 2316, "uilder": 2317, "Action": 2318, "Ġthings": 2319, "True": 2320, "Ġurl": 2321, "ĠBo": 2322, "printf": 2323, "Ġred": 2324, "js": 2325, "ĠOr": 2326, "Status": 2327, "Ġcontrol": 2328, "Ġcome": 2329, "Ġcustom": 2330, "location": 2331, "model": 2332, "ĠčĊ": 2333, "Ġsource": 2334, "Ġeas": 2335, "oney": 2336, "Ġpartic": 2337, "AP": 2338, "ublish": 2339, "odes": 2340, "ply": 2341, "riter": 2342, "Ġprov": 2343, "Ġmill": 2344, "HT": 2345, "Ġchang": 2346, "Ġask": 2347, "ĠĠĠĠĠĠĠĠĠĠĠĠĠĠĠĠĠĠĠĠĠ": 2348, "Ġoutput": 2349, "Ġemail": 2350, "ination": 2351, "atrix": 2352, "Table": 2353, "uccess": 2354, "ĠĠĠĠĠĠĠĠĠĠĠĠĠĠĠĠĠĠĠĠĠĠĠĠĠĠĠĠĠĠĠĠĠĠĠĠĠĠĠ": 2355, "Ġdisc": 2356, "([": 2357, "Ġbusiness": 2358, "height": 2359, ".html": 2360, "ta": 2361, "field": 2362, "Ġrequired": 2363, "Ġgovern": 2364, "lex": 2365, ".,": 2366, "ĠSet": 2367, "urch": 2368, "///": 2369, "ts": 2370, "af": 2371, "Ġmight": 2372, "istory": 2373, "Str": 2374, "Ġnever": 2375, "arse": 2376, "ada": 2377, "ĠHow": 2378, "Ġ*)": 2379, "Ġ;": 2380, "Ġhard": 2381, "Ad": 2382, "Ġintern": 2383, "used": 2384, "mod": 2385, "annel": 2386, "ugg": 2387, "Ġcalled": 2388, "body": 2389, "Ġcho": 2390, "(r": 2391, "ird": 2392, "Ġoptions": 2393, "ĠGener": 2394, "Ġheight": 2395, "Point": 2396, "You": 2397, "ety": 2398, "Ġsmall": 2399, "Ġide": 2400, "Ġaccess": 2401, "anguage": 2402, "Ġprotected": 2403, "Ġjob": 2404, "ĠThere": 2405, "Def": 2406, "Ġaddress": 2407, "Not": 2408, "oo": 2409, "aps": 2410, "ained": 2411, "atur": 2412, "Ġsum": 2413, "-w": 2414, "ĠDate": 2415, "Ġlittle": 2416, "Ġfri": 2417, "Ġport": 2418, "eh": 2419, "pring": 2420, "Ġstatus": 2421, "aim": 2422, "Ġappe": 2423, "Ġos": 2424, "ension": 2425, "Ġupdate": 2426, "aff": 2427, "ERR": 2428, "ately": 2429, "uction": 2430, "ĠTe": 2431, "Ġlink": 2432, "ĠUser": 2433, ".org": 2434, "me": 2435, "Ġgiven": 2436, "Out": 2437, "Ġbetter": 2438, "Page": 2439, "Ġfeel": 2440, "enn": 2441, "ML": 2442, "Ġalready": 2443, "Ġincluding": 2444, "oogle": 2445, "ru": 2446, "ically": 2447, "prop": 2448, "lean": 2449, "outer": 2450, "Ġalways": 2451, "ording": 2452, "If": 2453, "orage": 2454, "Ġparent": 2455, "vis": 2456, "ĉĉĉĉĉĉĉ": 2457, "Ġgot": 2458, "stand": 2459, "Ġless": 2460, "/s": 2461, "ĠAss": 2462, "apt": 2463, "ired": 2464, "ĠAdd": 2465, "Ġaccount": 2466, "ploy": 2467, "Ġder": 2468, "resent": 2469, "Ġlot": 2470, "Ġvalid": 2471, "Ġbit": 2472, "ponents": 2473, "Ġfollowing": 2474, "SON": 2475, "Ġsure": 2476, "ocial": 2477, "Ġprom": 2478, "erties": 2479, "header": 2480, "Ġsearch": 2481, "ken": 2482, "Ġorig": 2483, "Ġer": 2484, "Ed": 2485, "EM": 2486, "aut": 2487, "ling": 2488, "ality": 2489, "bed": 2490, "ether": 2491, "posit": 2492, "Ġinvest": 2493, "ĠOR": 2494, "Ġsays": 2495, "mission": 2496, "AME": 2497, "Ġtemp": 2498, "oad": 2499, "Ġrest": 2500, "info": 2501, "Ġinterest": 2502, "Arg": 2503, "Ġperform": 2504, "pons": 2505, "ĠView": 2506, "Ġver": 2507, "lib": 2508, "Util": 2509, "arge": 2510, "Ġmult": 2511, "Ġdie": 2512, "Ġsite": 2513, "../../": 2514, "EL": 2515, "Ġvalues": 2516, "pen": 2517, "No": 2518, "icro": 2519, "Ġbeh": 2520, "acy": 2521, "rec": 2522, "()->": 2523, "ĉĠĠĠ": 2524, "\"))": 2525, "Content": 2526, "plement": 2527, "Ġwon": 2528, "Ġvideo": 2529, "adi": 2530, "point": 2531, "%%": 2532, "Ġgl": 2533, "erved": 2534, "viron": 2535, "IF": 2536, "uted": 2537, "ãĥ": 2538, "'m": 2539, "Ġcert": 2540, "Ġprof": 2541, "Ġcell": 2542, "ari": 2543, "Ġplayer": 2544, "ais": 2545, "Ġcost": 2546, "Ġhum": 2547, "Ġoffic": 2548, "ks": 2549, "atures": 2550, "Ġtotal": 2551, "ope": 2552, "Ġstat": 2553, "UM": 2554, "Ġload": 2555, "ights": 2556, "Ġclear": 2557, "uro": 2558, "Ġtechn": 2559, "upport": 2560, "IR": 2561, "Ġrow": 2562, "Ġseem": 2563, "Ġq": 2564, "Ġshort": 2565, "ĠNot": 2566, "ipp": 2567, "Group": 2568, "section": 2569, "max": 2570, "irl": 2571, "Ġcompany": 2572, "Ġdone": 2573, "Ġgre": 2574, "Ġbelie": 2575, "rist": 2576, "Ġhealth": 2577, "ANT": 2578, "ĠBe": 2579, "ĠGr": 2580, "ottom": 2581, "Ġargs": 2582, "PT": 2583, "status": 2584, "func": 2585, "uments": 2586, "-h": 2587, "Number": 2588, "ĠLog": 2589, "erver": 2590, "ament": 2591, "Ġobj": 2592, "inc": 2593, "Ġchildren": 2594, "icy": 2595, "IZ": 2596, "ands": 2597, "ably": 2598, "Ġdistrib": 2599, "Ġcur": 2600, "erial": 2601, "Ġdays": 2602, "reated": 2603, "rect": 2604, "-l": 2605, "irm": 2606, "idden": 2607, "omb": 2608, "Ġinitial": 2609, "Ġâ": 2610, "Query": 2611, "Ġonline": 2612, "imal": 2613, ".con": 2614, "au": 2615, "Url": 2616, "control": 2617, "irection": 2618, "Ġinstance": 2619, "ORT": 2620, "ĠFr": 2621, "where": 2622, "Ġorgan": 2623, "apter": 2624, "Ġreason": 2625, "options": 2626, "ĠMar": 2627, "(a": 2628, "Ġwithin": 2629, "ODE": 2630, "admin": 2631, "ended": 2632, "Ġdesign": 2633, "ĠData": 2634, "une": 2635, "ĠFile": 2636, "root": 2637, "Ġcent": 2638, "Ġarr": 2639, "len": 2640, "page": 2641, ",'": 2642, "_str": 2643, "Ġbro": 2644, "ability": 2645, "outh": 2646, "/c": 2647, "pose": 2648, "irtual": 2649, "earch": 2650, "argin": 2651, "Ġschool": 2652, "ava": 2653, "Ġconsider": 2654, "web": 2655, "opt": 2656, "ulation": 2657, "Ġfunc": 2658, "PL": 2659, "ĠText": 2660, "actory": 2661, "null": 2662, "Ġeng": 2663, "down": 2664, "Ġinclude": 2665, "ĠEn": 2666, "ĠDr": 2667, "Ġdb": 2668, "!!": 2669, "side": 2670, "Ġinit": 2671, "quired": 2672, "ĠShe": 2673, "react": 2674, "Ġann": 2675, "Ġstop": 2676, "Ġlater": 2677, "ĠThat": 2678, "ention": 2679, "df": 2680, "UG": 2681, "ILE": 2682, "Ġclient": 2683, "raft": 2684, "ffer": 2685, "POST": 2686, "Ġlove": 2687, "quote": 2688, "oud": 2689, "Ġable": 2690, "Ġmen": 2691, "AX": 2692, "ĠCopyright": 2693, "Ã¶": 2694, "avig": 2695, "req": 2696, "Client": 2697, "erc": 2698, "ilt": 2699, "pecial": 2700, "room": 2701, "Ġgive": 2702, "amb": 2703, "ike": 2704, "Ġcondition": 2705, "client": 2706, "ators": 2707, ":\"": 2708, "Ġcopy": 2709, "uture": 2710, "iversity": 2711, "ernal": 2712, "{{": 2713, "ĠCan": 2714, "ounc": 2715, "do": 2716, "Ġocc": 2717, "Ġappro": 2718, "thers": 2719, "ze": 2720, "Ġeither": 2721, "ĠFl": 2722, "Ġimportant": 2723, "Ġlead": 2724, "attr": 2725, "ART": 2726, "Ġda": 2727, "etch": 2728, "entity": 2729, "Ġfamily": 2730, "adding": 2731, "Ġoption": 2732, "Ġexist": 2733, "ica": 2734, "ĠObject": 2735, "'ve": 2736, "vers": 2737, "itional": 2738, "output": 2739, "ĠTrue": 2740, "ĠOF": 2741, "Ġoffer": 2742, "HER": 2743, "egin": 2744, "\"\"": 2745, "Ġwater": 2746, "Ġche": 2747, "ĠMy": 2748, "ored": 2749, "Ġstep": 2750, "ances": 2751, "CK": 2752, "AY": 2753, "à¸": 2754, "struction": 2755, "(C": 2756, "ouch": 2757, "Stream": 2758, "active": 2759, "ama": 2760, "product": 2761, "Ġgovernment": 2762, "ĠID": 2763, "ajor": 2764, "And": 2765, "Ġdisplay": 2766, "Ð»": 2767, "Ġtimes": 2768, "Ġfour": 2769, "Ġfar": 2770, "Ġpresent": 2771, "ĠNS": 2772, "uest": 2773, "Ġbas": 2774, "echo": 2775, "child": 2776, "ifier": 2777, "Ġlib": 2778, "Property": 2779, "translation": 2780, "Ġroom": 2781, "Ġonce": 2782, "Ġ[]": 2783, "center": 2784, "================================": 2785, "Ġresults": 2786, "Ġcontinue": 2787, "Ġtalk": 2788, "Ġgrow": 2789, "eb": 2790, "ĠPublic": 2791, "OP": 2792, "ecute": 2793, "ols": 2794, "Ġ**": 2795, "Ġmass": 2796, "ured": 2797, "omic": 2798, "Ġmean": 2799, "ips": 2800, "Ġaut": 2801, "Ġuntil": 2802, "Ġmarket": 2803, "Ġarea": 2804, "uit": 2805, "Ġlength": 2806, "ĠWith": 2807, "structor": 2808, "event": 2809, "\"><": 2810, "ĠSp": 2811, "IV": 2812, "Ġmus": 2813, "iff": 2814, "Ġkind": 2815, "author": 2816, "ounds": 2817, "mb": 2818, "width": 2819, "Ġlight": 2820, "uk": 2821, "Row": 2822, "ohn": 2823, "alf": 2824, "vironment": 2825, "apper": 2826, "ollections": 2827, "Ġside": 2828, "Ġexample": 2829, "imary": 2830, "Ġwr": 2831, "Ġcamp": 2832, "cribe": 2833, "\"/": 2834, "Ġmiss": 2835, "way": 2836, "Ġbased": 2837, "Ġplan": 2838, "Vis": 2839, "omain": 2840, "unk": 2841, "Ġaway": 2842, "UP": 2843, "OS": 2844, "iod": 2845, "ĠMon": 2846, "âĢĻre": 2847, "Ġlik": 2848, "Ã§": 2849, "ively": 2850, "imer": 2851, "izer": 2852, "Sub": 2853, "Ġbutton": 2854, "ĠUp": 2855, "Ġexperience": 2856, "CL": 2857, "Ġrender": 2858, "Ġnear": 2859, "URL": 2860, "alt": 2861, "Ġcountry": 2862, "ibility": 2863, "ead": 2864, "Ġauthor": 2865, "Ġspecific": 2866, "base": 2867, "ones": 2868, "ĠDo": 2869, "Ġalong": 2870, "year": 2871, "Ġexpress": 2872, ".'": 2873, "env": 2874, "Ġbegin": 2875, "Ġsoftware": 2876, "Ġimp": 2877, "Ġwin": 2878, "Ã³n": 2879, "Ġthing": 2880, "Trans": 2881, "ĠTHE": 2882, "Ġwhy": 2883, "Ġdoesn": 2884, "ij": 2885, "ging": 2886, "Ġsingle": 2887, "offset": 2888, "arning": 2889, "ograph": 2890, "ley": 2891, "Ġanal": 2892, "create": 2893, "/m": 2894, "ĠReg": 2895, "unch": 2896, "=$": 2897, "isk": 2898, "Ġrights": 2899, "(M": 2900, "aper": 2901, "Ġpo": 2902, "empty": 2903, "artment": 2904, "Ġant": 2905, "ĠWhen": 2906, "Ġwomen": 2907, "ĠEd": 2908, "Ġseason": 2909, "Ġdest": 2910, "Ã£": 2911, "Ġpossible": 2912, "Ġsever": 2913, "Ġdidn": 2914, "Ġsent": 2915, "Ġenc": 2916, "Ġcommand": 2917, "Ġrecent": 2918, "olution": 2919, "vector": 2920, "ĠBy": 2921, "ĠMay": 2922, "ĠAct": 2923, "»¿": 2924, "Ġmoney": 2925, "INT": 2926, "bsite": 2927, "sl": 2928, "attern": 2929, "ĠClass": 2930, "Ġtold": 2931, "udio": 2932, "current": 2933, "Ġequ": 2934, "Ġauto": 2935, "ĠState": 2936, "da": 2937, "Ġworking": 2938, "Ġquery": 2939, "ĠBr": 2940, "Ġwindow": 2941, "auth": 2942, "only": 2943, "Ġleast": 2944, "agn": 2945, "Ġexpl": 2946, "itter": 2947, "aring": 2948, "Ġcolumn": 2949, "ĠGeneral": 2950, "\":\"": 2951, "eral": 2952, "rior": 2953, "Ġrecord": 2954, "IB": 2955, "EX": 2956, "Ġdat": 2957, "Ġmaking": 2958, "ued": 2959, "ĠCar": 2960, "emp": 2961, "\".": 2962, "ĠMed": 2963, "Ġclose": 2964, "Ġpercent": 2965, "Ġpast": 2966, ":(": 2967, "Ġwrite": 2968, "Ġmove": 2969, "Ġpat": 2970, "Control": 2971, "Ġvi": 2972, "inate": 2973, "'ll": 2974, "aged": 2975, "Null": 2976, "Ġspecial": 2977, "Ġcity": 2978, "ĠEng": 2979, "ixed": 2980, "inary": 2981, "py": 2982, "Ġeff": 2983, "ario": 2984, "Ġtell": 2985, "avor": 2986, "Ġselect": 2987, "level": 2988, "imum": 2989, "oper": 2990, "IP": 2991, "esc": 2992, "Ġfont": 2993, "ĠAm": 2994, "ished": 2995, "ills": 2996, "Inter": 2997, "OW": 2998, "Ġcourse": 2999, "Ġlate": 3000, "iddle": 3001, "Ġamount": 3002, "ino": 3003, "cul": 3004, "Ġì": 3005, "andle": 3006, "Ġben": 3007, "ĠCal": 3008, "ĠRep": 3009, "Ġenough": 3010, "Sc": 3011, "now": 3012, "atform": 3013, "Ġlooking": 3014, "Ġhold": 3015, "Module": 3016, "vo": 3017, "ison": 3018, "yc": 3019, "Ġpot": 3020, "ĠTrump": 3021, "idual": 3022, "ides": 3023, "rt": 3024, "Ġproperty": 3025, "ĠĠĠĠĠĠĠĠĠĠĠĠĠĠĠĠĠĠĠĠĠĠĠĠĠĠĠĠĠĠĠĠĠĠĠĠĠĠĠĠĠĠĠ": 3026, "amework": 3027, "go": 3028, "Ġlow": 3029, "Ġpara": 3030, "Ġprice": 3031, "ury": 3032, "Ġtoday": 3033, "roy": 3034, "Ġpolit": 3035, "Ġ''": 3036, "ymb": 3037, "Ph": 3038, "Ġadv": 3039, "Ġattack": 3040, "ĠSte": 3041, "ROM": 3042, "ana": 3043, "Ġmeans": 3044, "Ġstory": 3045, "ids": 3046, "aken": 3047, "Ġmeet": 3048, "Ġmom": 3049, "ĠâĢĺ": 3050, "Ġden": 3051, "obile": 3052, "change": 3053, "ĠĠĠĠĠĠĠĠĠĠĠĠĊ": 3054, "ici": 3055, "na": 3056, "ĠForm": 3057, "Ġsort": 3058, "Select": 3059, "pare": 3060, "Ġthought": 3061, "Ġtask": 3062, "ocus": 3063, "ĠDE": 3064, "ĠMin": 3065, "Ġopt": 3066, "umer": 3067, "KE": 3068, "then": 3069, "Ġdet": 3070, "ĠTest": 3071, "ports": 3072, "Ġreview": 3073, "('/": 3074, "move": 3075, "Ġswitch": 3076, "ERT": 3077, "patch": 3078, "annot": 3079, "ãĤ": 3080, "Ġabove": 3081, "itive": 3082, "Ġquestion": 3083, "ĠQu": 3084, "gle": 3085, "Ġword": 3086, "Ġprovide": 3087, "ĠReturn": 3088, "Ġresearch": 3089, "Ã£o": 3090, "ustr": 3091, "Ġpublish": 3092, "chema": 3093, "}}": 3094, "ĠCON": 3095, "-in": 3096, "allback": 3097, "Ġcover": 3098, "\\\\": 3099, "color": 3100, "ĠIS": 3101, "Ġwhether": 3102, "imate": 3103, "isc": 3104, "Bar": 3105, "Ġdiv": 3106, "Be": 3107, "ourn": 3108, "Ġhaving": 3109, "lem": 3110, "player": 3111, "abs": 3112, "amera": 3113, "ney": 3114, "Ġexc": 3115, "gether": 3116, "plied": 3117, "ao": 3118, "[$": 3119, "ipe": 3120, "show": 3121, "/d": 3122, "[:": 3123, "agement": 3124, "lev": 3125, "rary": 3126, "ades": 3127, "ause": 3128, "Ġemploy": 3129, "Ġfre": 3130, "Ġcomplet": 3131, "Ġlarge": 3132, "ral": 3133, "Ġfac": 3134, "Ġcreated": 3135, "uper": 3136, "Ġhost": 3137, "eneric": 3138, "/b": 3139, "(!": 3140, "while": 3141, "ias": 3142, "Ġrole": 3143, "Reg": 3144, "ĠColor": 3145, "Start": 3146, "Ġporn": 3147, "top": 3148, "Ġweb": 3149, "Ġdev": 3150, "Ġdeal": 3151, "position": 3152, "Ġ(\"": 3153, "Ġproblem": 3154, "sv": 3155, "Ġpress": 3156, "ATION": 3157, "ĠSee": 3158, "anch": 3159, "Ġthough": 3160, "leep": 3161, "Ġpoints": 3162, "ĠĠĠĠĠĠĠĠĠĠĠĠĠĠĠĠĠĠĠĠĠĠĠĠĠ": 3163, ".J": 3164, "DB": 3165, "node": 3166, "soft": 3167, "pond": 3168, "Ġever": 3169, "----------------------------------------------------------------": 3170, "Menu": 3171, "('#": 3172, "Ġservices": 3173, "pg": 3174, "Ġactually": 3175, "Method": 3176, "Ġident": 3177, "unic": 3178, "Ġmillion": 3179, "Ġaff": 3180, "style": 3181, "Ġconc": 3182, "ios": 3183, "ignment": 3184, "Pr": 3185, "Ġunderstand": 3186, "uary": 3187, "Ġhappen": 3188, "Ġserver": 3189, "ĠCo": 3190, "SC": 3191, "Ġles": 3192, "Ġfiles": 3193, "sql": 3194, "Ġoften": 3195, "Ġinfo": 3196, "ony": 3197, "Ġspace": 3198, "umb": 3199, "Ġpassword": 3200, "Ġstore": 3201, "ĠWhat": 3202, "ged": 3203, "ĠFalse": 3204, "Us": 3205, "swer": 3206, "Ġformat": 3207, "most": 3208, "sm": 3209, "New": 3210, "Ġdetails": 3211, "Ġprob": 3212, "ĠAND": 3213, "ilar": 3214, "rypt": 3215, "ĠFree": 3216, "dated": 3217, "Ġface": 3218, "Ġsave": 3219, "Ġtyp": 3220, "dev": 3221, "(\"#": 3222, "AGE": 3223, "container": 3224, "edit": 3225, "QL": 3226, "Ġitems": 3227, "Ġsocial": 3228, "ien": 3229, "Ġmar": 3230, "Ġredu": 3231, "ĠRE": 3232, "Ġmajor": 3233, "Cell": 3234, "next": 3235, "Ġexpected": 3236, "Ġyet": 3237, "Ġindiv": 3238, "tributes": 3239, "atis": 3240, "amed": 3241, "Ġfood": 3242, "Source": 3243, "(string": 3244, "ites": 3245, "dr": 3246, "Ġmembers": 3247, "Ġcomb": 3248, "items": 3249, "ĠPer": 3250, "TH": 3251, "Ġbar": 3252, "comm": 3253, "Ġsend": 3254, "Ġinc": 3255, "FA": 3256, "apping": 3257, "ros": 3258, "ugin": 3259, "fa": 3260, "Ġconnection": 3261, "Ġbecome": 3262, "Mode": 3263, "Ġev": 3264, "Ġdiff": 3265, "ĠUnited": 3266, "Height": 3267, "fully": 3268, "images": 3269, "Ġmakes": 3270, "Ġglobal": 3271, "Ġcontact": 3272, "Ġabs": 3273, "float": 3274, "Ġexcept": 3275, "ĠPol": 3276, "Child": 3277, "typ": 3278, "Ġcertain": 3279, "iÃ³n": 3280, "Ġimpro": 3281, "iles": 3282, "ĠPart": 3283, "values": 3284, "oss": 3285, "/**": 3286, "ilit": 3287, "ĠEvent": 3288, "curity": 3289, "ster": 3290, "Ġcharacter": 3291, "Ġnews": 3292, "Ġdevice": 3293, "cel": 3294, "heet": 3295, "@\"": 3296, "ĉĠ": 3297, "ĠAb": 3298, "Ġprevious": 3299, "ocal": 3300, "Ġmaterial": 3301, "Ġbelow": 3302, "ĠChrist": 3303, "Ġmedia": 3304, "cover": 3305, "ĠUI": 3306, "Ġfail": 3307, "Ġblack": 3308, "Ġcomponent": 3309, "ĠAmerican": 3310, "Ġadded": 3311, "Ġbuy": 3312, "stit": 3313, "Ġcame": 3314, "property": 3315, "oding": 3316, "Ġcard": 3317, "rops": 3318, "Ġhttps": 3319, "Ġroot": 3320, "Ġhandle": 3321, "CC": 3322, "Back": 3323, "emplate": 3324, "Ġgetting": 3325, "mail": 3326, "ĠDec": 3327, "Ġcomput": 3328, "Ġclaim": 3329, "'=>": 3330, "ĠSub": 3331, "Ġair": 3332, "ops": 3333, "nav": 3334, "ements": 3335, "Ġenter": 3336, "anged": 3337, "End": 3338, "Ġlocation": 3339, "Ġnight": 3340, "Ġdoing": 3341, "ĠRed": 3342, "lin": 3343, "vider": 3344, "Ġpick": 3345, "Ġwatch": 3346, "essages": 3347, "Ġhuman": 3348, "Ġdam": 3349, "pend": 3350, "dir": 3351, "Ġtax": 3352, "Ġgirl": 3353, "reet": 3354, "Ġbox": 3355, "Ġstrong": 3356, "rel": 3357, "Ġinterface": 3358, "fect": 3359, "Ġhouse": 3360, "Ġtrack": 3361, "je": 3362, "ĠJohn": 3363, "istr": 3364, "(S": 3365, "ube": 3366, "Ġce": 3367, "itted": 3368, "VER": 3369, "*)": 3370, "parent": 3371, "Ġapplication": 3372, "any": 3373, "Ġpack": 3374, "\\u": 3375, "Ġpract": 3376, "Ġsection": 3377, "ĠOne": 3378, "Ä±": 3379, "iple": 3380, "aid": 3381, "Ñĥ": 3382, "byte": 3383, "Ġwait": 3384, "ĠÃł": 3385, "Ã¥": 3386, "Ġtogether": 3387, "FO": 3388, "'))": 3389, "host": 3390, "ising": 3391, "Ġterms": 3392, "framework": 3393, "-r": 3394, "Ġapply": 3395, "Ġsession": 3396, "uggest": 3397, "Ġothers": 3398, "witter": 3399, "Ġfund": 3400, "Init": 3401, "__(": 3402, "ensor": 3403, "GET": 3404, "Ġseveral": 3405, "ii": 3406, "IO": 3407, "Position": 3408, "Ġecon": 3409, "achine": 3410, "Ġil": 3411, "main": 3412, "elt": 3413, "iment": 3414, "Rec": 3415, "mm": 3416, "ĠUniversity": 3417, "ursor": 3418, "ĠĠĠĠĠĠĠĠĠĠĠĠĠĠĠĠĠĠĠĠ": 3419, "GL": 3420, "icture": 3421, "ithub": 3422, "cer": 3423, "cast": 3424, "From": 3425, "ales": 3426, "Ġsubject": 3427, "ny": 3428, "Ġesc": 3429, "ï¼Į": 3430, "What": 3431, ".H": 3432, "Ġhistory": 3433, "ĠFe": 3434, "Ġindividual": 3435, "unit": 3436, "Ġ-->": 3437, "Ġdu": 3438, "IST": 3439, "Ġusers": 3440, "fs": 3441, "false": 3442, "unt": 3443, "Title": 3444, "Ġmot": 3445, "Ġfuture": 3446, "ached": 3447, "Ġstarted": 3448, "Ġmode": 3449, "Ġax": 3450, "ires": 3451, "There": 3452, "ught": 3453, "tml": 3454, "posed": 3455, "icult": 3456, "Ġtook": 3457, "Ġgames": 3458, "Ġproducts": 3459, "Is": 3460, "Ġbad": 3461, "ĠDes": 3462, "ĠPost": 3463, "avel": 3464, "(:": 3465, "Ġneeds": 3466, "Ġknown": 3467, "Fl": 3468, "Ġexec": 3469, "Ġseen": 3470, "ume": 3471, "Ġborder": 3472, "Ġlive": 3473, "temp": 3474, "Per": 3475, "Ġvariable": 3476, "iet": 3477, "ĠDef": 3478, "Ġge": 3479, "eme": 3480, "first": 3481, "Ġprovided": 3482, "////////////////////////////////": 3483, "Ġfilename": 3484, "Ġhope": 3485, "uly": 3486, "auto": 3487, "find": 3488, "_string": 3489, "itude": 3490, "Ġyoung": 3491, "Ġwebsite": 3492, "ĠProp": 3493, "Ġey": 3494, "ional": 3495, "ictionary": 3496, "urther": 3497, ".</": 3498, "ALL": 3499, "Ġstudy": 3500, "ili": 3501, "Ġnetwork": 3502, "yl": 3503, "istance": 3504, "OK": 3505, "NU": 3506, "rest": 3507, "ĠST": 3508, "icrosoft": 3509, "Ġlimit": 3510, "Ġcut": 3511, "Ġcou": 3512, "ogn": 3513, "ival": 3514, "Ġwent": 3515, "Link": 3516, "Ġfire": 3517, "Ġacross": 3518, "Ġcommunity": 3519, "region": 3520, "NE": 3521, "Ref": 3522, "Ġofficial": 3523, "Ġvisit": 3524, "olve": 3525, "Ġreceived": 3526, "Ġtoken": 3527, "Ġmonths": 3528, "Ġanim": 3529, "Ġparticular": 3530, "styles": 3531, "ico": 3532, "Ġess": 3533, "ĠÃ©": 3534, "ball": 3535, "Ġlearn": 3536, "inding": 3537, "Var": 3538, "Ġdecl": 3539, "One": 3540, "pha": 3541, "Ġ~": 3542, "fort": 3543, "asure": 3544, "Ġmind": 3545, "ĠEnd": 3546, "Check": 3547, "Ġquick": 3548, "\"),": 3549, "AND": 3550, "utions": 3551, "Base": 3552, "________": 3553, "Ġcomment": 3554, "INE": 3555, "But": 3556, "ĠEl": 3557, "ĠUs": 3558, "Ġadmin": 3559, "mark": 3560, "ĠName": 3561, "ĠType": 3562, "amic": 3563, "pc": 3564, "loor": 3565, "FT": 3566, "Ġopp": 3567, "cket": 3568, ")->": 3569, "tx": 3570, "Ġpur": 3571, "uel": 3572, "ymbol": 3573, "uation": 3574, "anger": 3575, "Ġbackground": 3576, "ecess": 3577, "efined": 3578, "........": 3579, "Ġdescription": 3580, "Ġrepresent": 3581, "pression": 3582, "rowser": 3583, "Ġseries": 3584, "wards": 3585, "($_": 3586, "aise": 3587, "Ġhot": 3588, "acity": 3589, "ries": 3590, "actions": 3591, "Create": 3592, "adio": 3593, "amples": 3594, "Ġoriginal": 3595, "ensive": 3596, "font": 3597, "stream": 3598, "server": 3599, "Ġbill": 3600, "ACK": 3601, "Ġframe": 3602, "Edit": 3603, "adius": 3604, "Ġdraw": 3605, "anks": 3606, "Ġdeter": 3607, "Ġcomes": 3608, "angle": 3609, "Ġelect": 3610, "pected": 3611, "istration": 3612, "ĠGame": 3613, "Ġfilter": 3614, "Ġlarg": 3615, "inition": 3616, "ised": 3617, "Ġremove": 3618, "ĠTrans": 3619, "met": 3620, "see": 3621, "Format": 3622, "Command": 3623, "ĠEX": 3624, "None": 3625, "Ġfront": 3626, "ASE": 3627, "ĠRec": 3628, "oundation": 3629, "Ġvo": 3630, "=\\\"": 3631, "(*": 3632, "Change": 3633, "group": 3634, "ients": 3635, "uy": 3636, "****************************************************************": 3637, "Ġdig": 3638, "hr": 3639, "(-": 3640, "Ġgen": 3641, "number": 3642, "vec": 3643, "urope": 3644, "entry": 3645, "LL": 3646, "Ġste": 3647, "'],": 3648, "Ġselected": 3649, "Ġaccording": 3650, "ĠDis": 3651, "Ġutil": 3652, "Ġassoci": 3653, "Ġwor": 3654, "Ġprintf": 3655, "rag": 3656, "Âł": 3657, "DD": 3658, "ĠVal": 3659, "Ġactiv": 3660, "Eng": 3661, "etime": 3662, "Ġvirtual": 3663, "aign": 3664, "aur": 3665, "ĠPres": 3666, "Ġanything": 3667, "ĠOff": 3668, "Ġhours": 3669, "Ġwar": 3670, "aging": 3671, "Ġmodels": 3672, "ĠTime": 3673, "Ob": 3674, "ams": 3675, "joy": 3676, "Ġearly": 3677, "Ġcenter": 3678, "ĠInitial": 3679, "Ġlanguage": 3680, "length": 3681, "xy": 3682, "Ġsn": 3683, "Ġinf": 3684, "Post": 3685, "Ġago": 3686, "Ġeasy": 3687, "Ġdownload": 3688, "(T": 3689, "aved": 3690, "âĢĵ": 3691, "Ġstudents": 3692, "Ġfig": 3693, "light": 3694, "xx": 3695, "Ġbuffer": 3696, "ĠDep": 3697, "ĠMath": 3698, "Ġvari": 3699, "Ġdue": 3700, "Factory": 3701, "Ġpor": 3702, "Ġep": 3703, "otype": 3704, "Ġcannot": 3705, "Ġwhite": 3706, "tern": 3707, "Ġregister": 3708, "Ġpred": 3709, "clus": 3710, "Ġauth": 3711, "Ġperiod": 3712, "nown": 3713, "Ġvot": 3714, "Ġscreen": 3715, "'d": 3716, "Types": 3717, "ural": 3718, "Ġbenef": 3719, "Ġnet": 3720, "ĠStates": 3721, "']['": 3722, "ĠNe": 3723, "ĠNOT": 3724, "Ġneg": 3725, "Ġcommon": 3726, "scope": 3727, "Ġcred": 3728, "ges": 3729, "Ġsuggest": 3730, "oom": 3731, "Ġaccept": 3732, "Ġrandom": 3733, "erm": 3734, "ĠVector": 3735, "with": 3736, "TER": 3737, "Ġrespons": 3738, "Ġhit": 3739, "grid": 3740, "ria": 3741, "undle": 3742, "Case": 3743, "insert": 3744, "Ġ\"\"\"": 3745, "Ġimplement": 3746, "atal": 3747, "tempt": 3748, "template": 3749, "ocr": 3750, "returns": 3751, "Ġplayers": 3752, "users": 3753, "ĠThese": 3754, "Ġamong": 3755, "Ġdeb": 3756, "ha": 3757, "Ġcirc": 3758, "Ġanswer": 3759, "Ġwalk": 3760, "Ġtreat": 3761, "ĠGe": 3762, "ĠCreate": 3763, "Ġage": 3764, "Ġreq": 3765, "OST": 3766, "angular": 3767, "Ñı": 3768, "Ġfive": 3769, "Ġdistributed": 3770, "Ġfriend": 3771, "TP": 3772, "Ġclean": 3773, "ows": 3774, "dis": 3775, "Ġwords": 3776, "zy": 3777, "Ġheader": 3778, "ĠCheck": 3779, "just": 3780, "holder": 3781, "=\"<?": 3782, "ĠGNU": 3783, "ĠCol": 3784, "imest": 3785, "entic": 3786, "Ġtre": 3787, "last": 3788, "la": 3789, "ĠYork": 3790, "Lo": 3791, "Ġdiscuss": 3792, "ĠGod": 3793, "Ġissue": 3794, "rew": 3795, "Window": 3796, "Ġland": 3797, "Ġstream": 3798, "ĠPar": 3799, "Ġquality": 3800, "Par": 3801, "Ġsal": 3802, "elves": 3803, "Ġworks": 3804, "Ġhalf": 3805, "enses": 3806, "vas": 3807, "Ġpolice": 3808, "(\"/": 3809, "ua": 3810, "Ġsimple": 3811, "Address": 3812, "Ġempty": 3813, "esh": 3814, "Update": 3815, "('.": 3816, "ĠĠĠĠĠĠĠĠĠĠĠĠĠĠĠĠĠĠ": 3817, "Ġagre": 3818, "Ġcook": 3819, "Ġeverything": 3820, "ilities": 3821, "Ġrelations": 3822, "extern": 3823, "Ġnothing": 3824, "Ġrunning": 3825, "RI": 3826, "_a": 3827, "por": 3828, "require": 3829, "ĠCity": 3830, "ĠWest": 3831, "Ġmor": 3832, "store": 3833, "oder": 3834, "Ġna": 3835, "Ġ('": 3836, "ĠDon": 3837, "ERS": 3838, "/p": 3839, "abor": 3840, "Ġsomeone": 3841, "_text": 3842, "ĠSome": 3843, "ato": 3844, "double": 3845, "Ġshare": 3846, "Ġur": 3847, "Stack": 3848, "ĠWorld": 3849, "stract": 3850, "How": 3851, "icles": 3852, "Ġentry": 3853, "Ġchanges": 3854, "Ġpersonal": 3855, "(A": 3856, "Ġoffset": 3857, "Ġpie": 3858, "ĠJan": 3859, "module": 3860, "ĠHowever": 3861, "verage": 3862, "Ġevents": 3863, "Ġinvol": 3864, "za": 3865, "Ġwhole": 3866, "Ġneeded": 3867, "Ġlikely": 3868, "rief": 3869, "version": 3870, "Ġfight": 3871, "Ġein": 3872, "Frame": 3873, "gen": 3874, "ĠOut": 3875, "avigation": 3876, "illed": 3877, "quence": 3878, "ĠSoftware": 3879, "Ġwriting": 3880, "Ġrate": 3881, "Panel": 3882, "inner": 3883, "Ġ[\"": 3884, "Ġtw": 3885, "cd": 3886, "ĠSm": 3887, "ĠMark": 3888, "prot": 3889, "ĠMr": 3890, "method": 3891, "ustomer": 3892, "Icon": 3893, "Ġcorrect": 3894, "ĠMore": 3895, "Ġfall": 3896, "Ġvol": 3897, "Ġdevelopment": 3898, "ently": 3899, "Ġsi": 3900, "medi": 3901, "ving": 3902, "PP": 3903, "aker": 3904, "Ġindu": 3905, "Ġpret": 3906, "Ġbelieve": 3907, "ns": 3908, "omet": 3909, "ĠIntern": 3910, "So": 3911, "Read": 3912, "Ġfeatures": 3913, "Ġminutes": 3914, "---": 3915, "asing": 3916, "cret": 3917, "Ġcollection": 3918, "'.": 3919, "Ġsimilar": 3920, "Ġtaken": 3921, "(\"%": 3922, "Order": 3923, "ĠTH": 3924, "aced": 3925, "Ġisn": 3926, "/j": 3927, "Ġson": 3928, "graph": 3929, "Ġnecess": 3930, "reen": 3931, "Ġum": 3932, "Ġmoment": 3933, "Ġbring": 3934, "Ġindic": 3935, "ysis": 3936, "Level": 3937, "verse": 3938, "urrenc": 3939, "_test": 3940, "Ġentire": 3941, "Down": 3942, "ĠRead": 3943, "Ã¨": 3944, "Mod": 3945, "Ġtrying": 3946, "Ġmember": 3947, "ĠCor": 3948, "-control": 3949, "ĠSim": 3950, "Dialog": 3951, "plot": 3952, "Ġphys": 3953, "}/": 3954, "ĉčĊ": 3955, "acc": 3956, "Player": 3957, "ARE": 3958, "Ġfoot": 3959, "Ġboard": 3960, "part": 3961, "Ġsus": 3962, "wise": 3963, "ĠMc": 3964, "Ġpush": 3965, "ATA": 3966, "ried": 3967, "weet": 3968, "bit": 3969, "ided": 3970, "VE": 3971, "ĠSw": 3972, "UB": 3973, "Ġtypes": 3974, "edia": 3975, "Ġclos": 3976, "acebook": 3977, "When": 3978, "Ġedit": 3979, "igger": 3980, "Ġenerg": 3981, "Container": 3982, "Ġphot": 3983, "ĠCount": 3984, "ĠEurope": 3985, "ĠRuss": 3986, "peed": 3987, "ĠStr": 3988, "Ġpy": 3989, "Ġcult": 3990, "Ġdefined": 3991, "ccount": 3992, "Ġobt": 3993, "Ġthread": 3994, "ille": 3995, "Ġinstead": 3996, "strong": 3997, "ĠSec": 3998, "Ġidea": 3999, "emy": 4000, "selected": 4001, "Connection": 4002, "acing": 4003, "thread": 4004, "Ġcoll": 4005, "Ġfilm": 4006, "istic": 4007, "Ġcompet": 4008, "Ġconn": 4009, "though": 4010, "Ġcompan": 4011, "ocket": 4012, "Ġteach": 4013, "=(": 4014, "Ġphone": 4015, "Ġactive": 4016, "delete": 4017, "tries": 4018, "Ġmo": 4019, "Ġdeath": 4020, "ocol": 4021, "Ġarticle": 4022, "rodu": 4023, "andid": 4024, "Ñĭ": 4025, "ĠCr": 4026, "ka": 4027, "():": 4028, "lood": 4029, "ĉĉĉĊ": 4030, "Ġalmost": 4031, "Ġsell": 4032, "rip": 4033, "Unit": 4034, "Ġapplic": 4035, "Ġconnect": 4036, "Ġfeature": 4037, "Ġvia": 4038, "'),": 4039, "Ġlim": 4040, "ĠĠĠĠĠĠĠĠĠĠĠĠĠĠĠĠĠĠĠĠĠĠĠĠĠĠĠĠĠĠĠĠĠĠĠĠĠĠĠĠĠĠĠĠĠĠĠ": 4041, "ĠGu": 4042, "Engine": 4043, "Ġens": 4044, "Ġenvironment": 4045, "block": 4046, "NULL": 4047, "gy": 4048, "tag": 4049, ")).": 4050, "exp": 4051, "Ġcompl": 4052, "Ġinstall": 4053, "Ġcomplete": 4054, "queue": 4055, "atural": 4056, "Ġgeneral": 4057, "thon": 4058, "Ġasked": 4059, "ores": 4060, "Ġreserved": 4061, "SP": 4062, "ĠâĢ¦": 4063, "ÅĤ": 4064, "Ġsignific": 4065, "Off": 4066, "ĠĠĠĠĠĠĠĠĠĠĠĠĠĠĠĠĠĠĠĠĠĠĠĠĠĠĠĠĠ": 4067, "ĠAg": 4068, "ĠJust": 4069, "ĠError": 4070, "Ġinfl": 4071, "Ġicon": 4072, "asks": 4073, "''": 4074, "?.": 4075, "account": 4076, "Ġ(*": 4077, "rap": 4078, "ĠFOR": 4079, "Ġparty": 4080, "ĠYour": 4081, "cat": 4082, "stry": 4083, "boot": 4084, "ĠNov": 4085, "Ġvector": 4086, "Ġnormal": 4087, "Ġfurther": 4088, "Ġdatabase": 4089, "attle": 4090, "Ġmusic": 4091, "Ġspeed": 4092, "Ġdoc": 4093, "process": 4094, "IGHT": 4095, "Ġtaking": 4096, "Ġviol": 4097, "ceed": 4098, "ĠAfter": 4099, "Ġforward": 4100, "Ġcrit": 4101, "rot": 4102, "Ġfailed": 4103, "efore": 4104, "Ġconcern": 4105, "oe": 4106, "ba": 4107, "Ġsender": 4108, "Ġterm": 4109, "has": 4110, "=\"#": 4111, "Ġpotential": 4112, "Num": 4113, "Ġpublished": 4114, "ĠImage": 4115, "straint": 4116, "UD": 4117, "ĠOb": 4118, "Ġprobably": 4119, "lim": 4120, "olume": 4121, "Ġconsum": 4122, "ague": 4123, "ensions": 4124, "Ġinvestig": 4125, "-year": 4126, "');": 4127, "Ġenjoy": 4128, "orig": 4129, "ering": 4130, "leased": 4131, "plements": 4132, "Ġreturns": 4133, "pat": 4134, "BO": 4135, "ĠHouse": 4136, "Ġweight": 4137, "ighb": 4138, "Ġconditions": 4139, "Ġexception": 4140, "description": 4141, "Ġtrad": 4142, "-to": 4143, "Ġ{}": 4144, "Ġmodule": 4145, "END": 4146, "aves": 4147, "Ġfavor": 4148, "ĠNow": 4149, "ĠMain": 4150, "eries": 4151, "transform": 4152, "Pre": 4153, "Ġmer": 4154, "stant": 4155, "Location": 4156, "Ġloss": 4157, "ĠĊĊ": 4158, "net": 4159, "Ġengine": 4160, "Block": 4161, "Ġissues": 4162, "Ġparse": 4163, "ĠBar": 4164, "Ġstay": 4165, "ĠJSON": 4166, "Ġdom": 4167, "airs": 4168, "wner": 4169, "Ġlower": 4170, "ĠDem": 4171, "ufact": 4172, "Ġps": 4173, "Ġperfect": 4174, "RL": 4175, "Ġeduc": 4176, "ls": 4177, "emory": 4178, "uge": 4179, "Ġexact": 4180, "alled": 4181, "ech": 4182, "ief": 4183, "\\/": 4184, "oke": 4185, "Ġformer": 4186, "alloc": 4187, "Ġsix": 4188, "ida": 4189, "Ġmargin": 4190, "Ġheart": 4191, "ald": 4192, "pack": 4193, "Ġrather": 4194, "Ġbuilding": 4195, "erman": 4196, "lice": 4197, "Ġquestions": 4198, "izes": 4199, "lege": 4200, "irectory": 4201, "Ġje": 4202, "Ġcas": 4203, "utf": 4204, "Ġsecurity": 4205, "Ġhowever": 4206, "weight": 4207, "Ġinside": 4208, "Ġpresident": 4209, "Char": 4210, "Ġgraph": 4211, "Ġtag": 4212, "Ġattempt": 4213, "opp": 4214, "uses": 4215, "Ġround": 4216, ",$": 4217, "Ġfriends": 4218, "?>": 4219, "Resource": 4220, "osp": 4221, "ĠNorth": 4222, "ables": 4223, "istrib": 4224, "ello": 4225, "That": 4226, "Ðº": 4227, "pecially": 4228, "ĠPresident": 4229, "Ġcampaign": 4230, "Ġalt": 4231, "area": 4232, "Ġchall": 4233, "Ġopport": 4234, ".Con": 4235, "Ġenergy": 4236, "like": 4237, "ington": 4238, ")*": 4239, "yy": 4240, "Ġprofession": 4241, "irth": 4242, "Ġseg": 4243, "Ġhor": 4244, "iers": 4245, "can": 4246, "Ġbehind": 4247, "Product": 4248, "fg": 4249, "ĠSk": 4250, "?:": 4251, "ÑĮ": 4252, "long": 4253, "MS": 4254, "Ġraise": 4255, "Ġwanted": 4256, "rown": 4257, "utor": 4258, "lt": 4259, "]=": 4260, "eline": 4261, "MA": 4262, "Ġsepar": 4263, "cs": 4264, "semb": 4265, "Dis": 4266, "bserv": 4267, "ĠWill": 4268, "Ġpolicy": 4269, "Ġthird": 4270, "phone": 4271, "Ġbed": 4272, "/g": 4273, ".__": 4274, "ĠInc": 4275, "izing": 4276, "instance": 4277, "Ġserv": 4278, "Each": 4279, "Ġhar": 4280, "ĠMessage": 4281, "SELECT": 4282, "Pos": 4283, "Ġrecomm": 4284, "Ġtraining": 4285, "ĠEnt": 4286, "ĠChar": 4287, "icht": 4288, "Ġprior": 4289, "Game": 4290, "Ġexit": 4291, "PC": 4292, "nes": 4293, "anced": 4294, "Ġmag": 4295, "Ġrelease": 4296, "Ġshall": 4297, "udent": 4298, "ĠSouth": 4299, "ando": 4300, ":'": 4301, "sk": 4302, "anner": 4303, "Ġoutside": 4304, "ledge": 4305, "ĠRob": 4306, "Ġimm": 4307, "ĠWeb": 4308, "Des": 4309, "BC": 4310, "ancial": 4311, "Route": 4312, "Dec": 4313, "ferences": 4314, "Ġpurch": 4315, "ĠModel": 4316, "ctor": 4317, "gn": 4318, ".*": 4319, "ises": 4320, "Ġground": 4321, "Ġunique": 4322, "Ġbeaut": 4323, "{\"": 4324, "Ġpour": 4325, "ĠOct": 4326, "Ġtree": 4327, "sets": 4328, "')->": 4329, "(\"\\": 4330, "Ġbyte": 4331, "Bl": 4332, "Ġdating": 4333, "Ġmatter": 4334, "ĠRem": 4335, "ĠAug": 4336, "ĠLa": 4337, "ournal": 4338, "iam": 4339, "Ġshows": 4340, "write": 4341, "Ġball": 4342, "Ġsimply": 4343, "Ġfast": 4344, "Ġmemory": 4345, "ASS": 4346, "ĠOf": 4347, "oved": 4348, "ante": 4349, "aul": 4350, "istry": 4351, "Ġfit": 4352, "Ġpolitical": 4353, "ancel": 4354, "_.": 4355, "card": 4356, "och": 4357, "(L": 4358, "Ġindustry": 4359, "coming": 4360, "Ġextra": 4361, "Ġreported": 4362, "Ġresources": 4363, "flow": 4364, "ĠPre": 4365, "Ġwrong": 4366, "interface": 4367, "ners": 4368, "á»": 4369, "ture": 4370, "ersist": 4371, "ountry": 4372, "Ġseems": 4373, "alance": 4374, "dest": 4375, "Ġmaint": 4376, "Ġunit": 4377, "acters": 4378, "ĠTR": 4379, "iful": 4380, "exports": 4381, "project": 4382, "Application": 4383, "legate": 4384, "Ġtakes": 4385, "term": 4386, "Ġetc": 4387, "uster": 4388, "Ġappear": 4389, "address": 4390, "Ġfem": 4391, "hs": 4392, "Ġhom": 4393, ",-": 4394, "Ġdifficult": 4395, "Ġcoming": 4396, "Open": 4397, "Ġsettings": 4398, "ĠWar": 4399, "ĠThen": 4400, "Ġautom": 4401, "ĠFoundation": 4402, "Ġquite": 4403, "Description": 4404, "Ġblog": 4405, "iqu": 4406, "PS": 4407, "ĠSch": 4408, "ĠLO": 4409, "Ġdescri": 4410, "Ġeveryone": 4411, "Ġlonger": 4412, "Ġmenu": 4413, "Ġcurrently": 4414, "sec": 4415, "Ġrelationship": 4416, "################################": 4417, "ĠMap": 4418, "aset": 4419, "Ġparameters": 4420, "Ġcrush": 4421, "igration": 4422, "Ġcout": 4423, "total": 4424, "Ġnames": 4425, "ndef": 4426, "\");": 4427, "riend": 4428, "ynamic": 4429, "Ġeffort": 4430, "Ġactual": 4431, "Ġfields": 4432, "OUN": 4433, "ters": 4434, "Ġfix": 4435, "Ġcases": 4436, "CA": 4437, "My": 4438, "Interface": 4439, "ĠSE": 4440, "]]": 4441, "alle": 4442, "ĠNational": 4443, "inline": 4444, ".V": 4445, "ara": 4446, "refix": 4447, "asc": 4448, "Reader": 4449, "ĠÐ¿": 4450, "astic": 4451, "(()": 4452, "Cl": 4453, "Ġperformance": 4454, "aily": 4455, ".net": 4456, "views": 4457, "ayers": 4458, "late": 4459, "ĠApr": 4460, "ederal": 4461, "'])": 4462, "Ġhigher": 4463, "cr": 4464, "alert": 4465, "ĠGoogle": 4466, "Ġitself": 4467, "Auth": 4468, "urrency": 4469, "Ġsignificant": 4470, "append": 4471, "Ġrespect": 4472, "strap": 4473, "Ġuna": 4474, "riteria": 4475, "Ġprogress": 4476, "Ġmid": 4477, "ĠMicrosoft": 4478, "Ġresource": 4479, "ablish": 4480, "Ġdim": 4481, "Ġdirection": 4482, "Ġadditional": 4483, "ĠĠĠĠĠĠĠĠĠĠĠĠĠĠĠĠĠĠĠĠĠĠĠĠ": 4484, "Ġnumbers": 4485, "Ġcompanies": 4486, ".Th": 4487, "Ġsound": 4488, "Ġstatement": 4489, "Ġalert": 4490, "Ġcontract": 4491, "home": 4492, "ev": 4493, ".Ex": 4494, "ï¼ļ": 4495, "\";": 4496, "ĠHigh": 4497, "ĠPoint": 4498, "oph": 4499, "Ġlines": 4500, "->_": 4501, "ox": 4502, "application": 4503, "ĊĊĊĊĊĊ": 4504, "Ġsoon": 4505, "ctions": 4506, "inger": 4507, "Ġjoin": 4508, "ĠPe": 4509, "Ġë": 4510, "Ġlas": 4511, ".E": 4512, "/or": 4513, "ĠStart": 4514, "ĠTO": 4515, "Ġsubs": 4516, "conn": 4517, "components": 4518, "quare": 4519, "Function": 4520, "endar": 4521, "Ġfill": 4522, "ÄĻ": 4523, "Ġchoose": 4524, "how": 4525, "ĠAmerica": 4526, "assets": 4527, "------------": 4528, "ĠValue": 4529, "Ġoffice": 4530, "Ġveh": 4531, "Ġtransform": 4532, "ĠArt": 4533, "Ġinde": 4534, "ango": 4535, "plete": 4536, "+\"": 4537, "amily": 4538, "Ġhash": 4539, "missions": 4540, "EST": 4541, "gt": 4542, "ĠĠĠĠĠĠĠĠĠĠĠĠĠĠĠĠĠĠĠĠĠĠ": 4543, "Ġflag": 4544, "Ġparticip": 4545, "den": 4546, "ĠReturns": 4547, "Ġnote": 4548, "Ã¼r": 4549, "pm": 4550, "ideos": 4551, "Ġspecified": 4552, "ĠEN": 4553, "ester": 4554, "olid": 4555, "Ġupon": 4556, "uz": 4557, "Ġvert": 4558, "Ġvict": 4559, ".k": 4560, "Ġgroups": 4561, "lang": 4562, "Ġmut": 4563, "TO": 4564, "Ġve": 4565, "ĠPlease": 4566, "access": 4567, "rea": 4568, "Ġrisk": 4569, "icker": 4570, "ANG": 4571, "Ġwoman": 4572, "Ġgets": 4573, "Ġign": 4574, "ĠId": 4575, "ONE": 4576, "Ġevid": 4577, "ĠHar": 4578, "Ġendl": 4579, "Ġincluded": 4580, "ĠAp": 4581, "igr": 4582, "Ġsem": 4583, "ĠBlack": 4584, "doc": 4585, "ĠĠĠĠĠĠĠĠĠĠĠĠĠĠĠĠĠĠĠĠĠĠĠĠĠĠĠĠĠĠĠĠĠĠĠĠĠĠĠĠĠĠĠĠĠĠĠĠĠĠĠĠĠĠĠĠĠĠĠĠĠĠĠĠ": 4586, "-up": 4587, "Ġcause": 4588, "Ġ..": 4589, "Ġvan": 4590, "Ġfocus": 4591, "IND": 4592, "Ġmultiple": 4593, "ido": 4594, "Ġregard": 4595, "-M": 4596, "andler": 4597, "ourse": 4598, "Ġdeg": 4599, ".U": 4600, "Ġaddition": 4601, "Ġvarious": 4602, "Ġreceive": 4603, "ÐµÐ½": 4604, "ĠHT": 4605, "Obj": 4606, "DF": 4607, "Ġincrease": 4608, "ĠOpen": 4609, "];": 4610, "Ġcommit": 4611, "ategories": 4612, "atory": 4613, "ship": 4614, "ĠMich": 4615, "romise": 4616, "Ġleave": 4617, "Ġstrateg": 4618, "aven": 4619, "known": 4620, "-n": 4621, "Ġbre": 4622, "Session": 4623, "iance": 4624, "Ġalign": 4625, "Ġreading": 4626, "Ġclo": 4627, "Ġnotice": 4628, "arter": 4629, "Ġlock": 4630, "Ġstandard": 4631, "etic": 4632, "ellow": 4633, "Ġpadding": 4634, "ĠHis": 4635, "Ġstates": 4636, "(P": 4637, "aa": 4638, "Ġinternal": 4639, "ean": 4640, "ĠPRO": 4641, "ĠKey": 4642, "Ġespecially": 4643, "ming": 4644, "Ġcross": 4645, "Ġnational": 4646, "filter": 4647, "Ġscript": 4648, "%%%%": 4649, "Ġproblems": 4650, "istor": 4651, "Ġarch": 4652, "Ġwritten": 4653, "Ġmilit": 4654, "cape": 4655, "ĠMus": 4656, "ĠAPI": 4657, "foot": 4658, "Ġimages": 4659, "endl": 4660, "First": 4661, "Ġplatform": 4662, "Option": 4663, "ste": 4664, "Ġforce": 4665, "ĠDav": 4666, "(B": 4667, "RT": 4668, "ĠBase": 4669, "]['": 4670, "Ġannounc": 4671, "console": 4672, "ĠPy": 4673, "ds": 4674, "Ġprevent": 4675, "apan": 4676, "}</": 4677, "ĠService": 4678, "ĠSen": 4679, "ador": 4680, "profile": 4681, "Top": 4682, "Ġiter": 4683, "po": 4684, "IES": 4685, "JSON": 4686, "IE": 4687, "iant": 4688, "ãĢģ": 4689, "ĠSept": 4690, "bum": 4691, "ĠHome": 4692, "ians": 4693, "GB": 4694, "Ġliving": 4695, "Ġpattern": 4696, "icient": 4697, "Core": 4698, "Ġentity": 4699, "Ġinteg": 4700, "Ġuseful": 4701, "Ġtool": 4702, "(item": 4703, "Ġok": 4704, "Ġfeed": 4705, "IX": 4706, "Ã©s": 4707, "ĠNews": 4708, "remove": 4709, "erry": 4710, "ĉĉĉĉĉĉĉĉĉ": 4711, "ipment": 4712, "ares": 4713, "Do": 4714, "Current": 4715, "ustral": 4716, "ĠÑģ": 4717, "})": 4718, "Ġpopular": 4719, "Ġstre": 4720, "Ġmethods": 4721, "Left": 4722, "cal": 4723, "bsp": 4724, "Ġdir": 4725, "Ġallowed": 4726, "Ġimpact": 4727, "Ġelements": 4728, "Ġprote": 4729, "Ġtrain": 4730, "rs": 4731, "ĠRepublic": 4732, "ĠTask": 4733, "aries": 4734, "(D": 4735, "Ġrelated": 4736, "Ġvers": 4737, "Ġsil": 4738, "Ġtechnology": 4739, "ĠUse": 4740, "Body": 4741, "should": 4742, "Font": 4743, "llum": 4744, "ycle": 4745, "ĠBrit": 4746, "Ġmit": 4747, "Ġscale": 4748, "ernel": 4749, "Ġscore": 4750, "/v": 4751, "Ġstudent": 4752, "UC": 4753, "Ġaverage": 4754, "common": 4755, "imation": 4756, ":@\"": 4757, "chie": 4758, "river": 4759, "ĠMarch": 4760, "category": 4761, "fin": 4762, "Ġcourt": 4763, "Ð²": 4764, "Server": 4765, "Ġcontainer": 4766, "-st": 4767, "_for": 4768, "Ġparts": 4769, "Ġdecision": 4770, "obs": 4771, "oub": 4772, "mitted": 4773, "Ġsaw": 4774, "Ġapproach": 4775, "ICE": 4776, "Ġsaying": 4777, "Ġanyone": 4778, "meta": 4779, "SD": 4780, "Ġsong": 4781, "display": 4782, "Oper": 4783, "outes": 4784, "Ġchannel": 4785, "Ġchanged": 4786, "Ãª": 4787, "Ġfinally": 4788, "Please": 4789, "à¤": 4790, "oring": 4791, "-re": 4792, "Ġkill": 4793, "Ġdrug": 4794, "window": 4795, "Ġconvert": 4796, "ombre": 4797, "Ġways": 4798, "ĠFirst": 4799, "(__": 4800, "urity": 4801, "ĠWindows": 4802, "ees": 4803, "Ġmat": 4804, "rapper": 4805, "Ġplus": 4806, "anges": 4807, "\"].": 4808, "azon": 4809, "/t": 4810, "lat": 4811, "aste": 4812, "Ġprofile": 4813, "Ġready": 4814, "rote": 4815, "Ġsense": 4816, "Gener": 4817, "omy": 4818, "ĠJune": 4819, "Ġlatest": 4820, "Ġsaf": 4821, "Ġregion": 4822, "Ġdeep": 4823, "witch": 4824, "ĠPark": 4825, "}`": 4826, "ĠFrom": 4827, "II": 4828, "Ġreach": 4829, "Ġcounter": 4830, "ĠWork": 4831, "ĠURL": 4832, "Ġimmedi": 4833, "close": 4834, "ados": 4835, "ferred": 4836, "Ġweeks": 4837, "urg": 4838, "Ġdamage": 4839, "Ġlost": 4840, "ani": 4841, "Ġhimself": 4842, "Ġdog": 4843, "ï¿": 4844, "pir": 4845, "tt": 4846, "Ġpaper": 4847, "Ġthems": 4848, "second": 4849, "Ġstaff": 4850, "ĠInput": 4851, "\"+": 4852, "ĠFacebook": 4853, "Ġalloc": 4854, "Ġsched": 4855, "ACE": 4856, "Ġthemselves": 4857, "Ġdriver": 4858, "ja": 4859, "Ġcategory": 4860, "alls": 4861, "pu": 4862, "ĠAction": 4863, "ĠGL": 4864, "istics": 4865, "Ġoil": 4866, "Ġstock": 4867, ">'": 4868, "Ġdead": 4869, "************************************************************************": 4870, "Ġcharg": 4871, "Return": 4872, "Ġful": 4873, "dom": 4874, "Ġrules": 4875, "Ġmodify": 4876, "Ġeval": 4877, "ham": 4878, "atement": 4879, "\\<": 4880, "ula": 4881, "RA": 4882, "Ġcontains": 4883, "Ġstack": 4884, "mar": 4885, "Ġundefined": 4886, "Ass": 4887, "ĠChina": 4888, "vey": 4889, "Ġplaying": 4890, ")/": 4891, "actor": 4892, "Ġbottom": 4893, "lier": 4894, "ĠNumber": 4895, "Ġcouple": 4896, "DC": 4897, "ĠSO": 4898, "gor": 4899, "success": 4900, "command": 4901, "ĠOur": 4902, "Ġroad": 4903, "Version": 4904, "case": 4905, "urt": 4906, "avior": 4907, "ych": 4908, "sembly": 4909, "ĠProduct": 4910, "Ġheld": 4911, "afe": 4912, "Ġincludes": 4913, "Ġavoid": 4914, "ĠFin": 4915, "ĠMod": 4916, "Ġtab": 4917, "ano": 4918, "Ã±": 4919, "ipping": 4920, "-e": 4921, "Ġinsert": 4922, "target": 4923, "chan": 4924, "IME": 4925, "Ġmachine": 4926, "avy": 4927, "ĠNO": 4928, "ĠInter": 4929, "Ġoperation": 4930, "modal": 4931, "Tag": 4932, "]:": 4933, "Ġproduction": 4934, "Ġareas": 4935, "Ġren": 4936, "Ġoperator": 4937, "men": 4938, "apped": 4939, "zen": 4940, "(\".": 4941, "=\"{{": 4942, "Ġtor": 4943, "Ġcandid": 4944, "Ġconv": 4945, "ailed": 4946, "ĠLib": 4947, "comp": 4948, "ura": 4949, "ĠHere": 4950, "Ġargument": 4951, "hood": 4952, "Ġestablish": 4953, "ography": 4954, "ambda": 4955, "Ġsch": 4956, "Ġmovie": 4957, "Ġsec": 4958, "Ġactivity": 4959, "incip": 4960, "Ġprovides": 4961, "Ġsys": 4962, "acket": 4963, "Ġwasn": 4964, "Ġuses": 4965, "ĠFunction": 4966, "ĠResult": 4967, "agma": 4968, "elcome": 4969, "ĠSy": 4970, "ĠCent": 4971, "aciÃ³n": 4972, "EXT": 4973, "Ġlicense": 4974, "ĠLong": 4975, "Ġaccom": 4976, "Ġability": 4977, "Active": 4978, "ological": 4979, "oly": 4980, ")),": 4981, "Ġparameter": 4982, "ĠGroup": 4983, "ĠItem": 4984, "ining": 4985, "Ġjud": 4986, "ims": 4987, "fix": 4988, "inder": 4989, "agram": 4990, "Ġfunctions": 4991, "Ġexperi": 4992, "ĠEm": 4993, "Ġrot": 4994, "Ġpen": 4995, "ĠAS": 4996, "Ġchoice": 4997, "ĠPage": 4998, "QU": 4999, "antity": 5000, "ÂŃ": 5001, "words": 5002, "Ġflex": 5003, "protected": 5004, "ĠAny": 5005, "Ġcharacters": 5006, "enced": 5007, "ĠJuly": 5008, "iler": 5009, "Card": 5010, "urance": 5011, "Ġrev": 5012, "aly": 5013, "Ġwonder": 5014, "ĠPort": 5015, "Ġlegal": 5016, "role": 5017, "Ġten": 5018, "Ġgoes": 5019, "MP": 5020, "white": 5021, "Ġreference": 5022, "Ġmis": 5023, "ĠProject": 5024, "icks": 5025, ">&": 5026, "CON": 5027, "Ġrepl": 5028, "Ġregular": 5029, "ramework": 5030, "Ġgoal": 5031, "Ġtouch": 5032, "Ġbuilt": 5033, "des": 5034, "Part": 5035, "Ġworth": 5036, "hib": 5037, "game": 5038, "ĠÐ²": 5039, "acion": 5040, "ĠWhite": 5041, "(`": 5042, "Ġnatural": 5043, "Ġinj": 5044, "Ġcalcul": 5045, "ĠApril": 5046, "Ġassociated": 5047, "~~": 5048, "=[": 5049, "Ġstorage": 5050, "Ġbytes": 5051, "Ġtravel": 5052, "Ġsou": 5053, "Ġpassed": 5054, "!=": 5055, "Ġgrid": 5056, "Ġbus": 5057, "Ġrecogn": 5058, "Ab": 5059, "Ġhon": 5060, "ĠCenter": 5061, "Ġprec": 5062, "build": 5063, "HTML": 5064, "ĠSan": 5065, "Ġcountries": 5066, "aled": 5067, "kt": 5068, "Ġqual": 5069, "Last": 5070, "adow": 5071, "Ġmanufact": 5072, "idad": 5073, "Next": 5074, "xf": 5075, ".a": 5076, "ĠPM": 5077, "erve": 5078, "iting": 5079, "ci": 5080, "gs": 5081, "Ġlogin": 5082, "atives": 5083, "Äħ": 5084, "Ġill": 5085, "IA": 5086, "children": 5087, "DO": 5088, "Ġlevels": 5089, "Ġlooks": 5090, "Ġnecessary": 5091, "ĠĠĠĊ": 5092, "cell": 5093, "Ġextrem": 5094, "Ġreleased": 5095, "ĠTV": 5096, "inq": 5097, "Press": 5098, "ĠDepartment": 5099, "Ġproperties": 5100, "Ġrespond": 5101, "Search": 5102, "ael": 5103, "Ġrequ": 5104, "ĠBook": 5105, "Ġfinancial": 5106, "icket": 5107, "Ġthreat": 5108, "ìĿ": 5109, "Ã§Ã£o": 5110, "Ġevidence": 5111, "));": 5112, "ĠBro": 5113, "Ġou": 5114, "buf": 5115, "Script": 5116, "dat": 5117, "Ġrule": 5118, "=\"/": 5119, "Serial": 5120, "Ġstarting": 5121, "ae": 5122, "Ġcontrib": 5123, "session": 5124, "utable": 5125, "ober": 5126, "Ġrecently": 5127, "Ġreturned": 5128, "ččĊ": 5129, "itions": 5130, "Ġseek": 5131, "Ġcommunic": 5132, "Ġ\".": 5133, "ECT": 5134, "DS": 5135, "Ġotherwise": 5136, "ĠGerman": 5137, "ixel": 5138, "Ġsystems": 5139, "Ġdrop": 5140, "Ġstructure": 5141, "encies": 5142, "anning": 5143, "ĠLink": 5144, "ĠResponse": 5145, "Ġstri": 5146, "Å¼": 5147, "ĠDB": 5148, "submit": 5149, "otion": 5150, "(@": 5151, ".test": 5152, "ĊĊĊĊĊĊĊĊ": 5153, "Ġdirectly": 5154, "ris": 5155, "elta": 5156, "mine": 5157, "ĠĠĠĠĠĠĠĠĠĠĠĠĠĠĠĠĠĠĠĠĠĠĠĠĠĠ": 5158, "bon": 5159, "asic": 5160, "pite": 5161, "___": 5162, "Max": 5163, "Ġerrors": 5164, "ĠWhile": 5165, "Ġarguments": 5166, "Ġensure": 5167, "Right": 5168, "-based": 5169, "Web": 5170, "Ġintrodu": 5171, "ĠInst": 5172, "ĠWash": 5173, "ordin": 5174, "join": 5175, "Database": 5176, "Ġgrad": 5177, "Ġusually": 5178, "ITE": 5179, "ĠGo": 5180, "Ġip": 5181, "ĠAustral": 5182, "Ġist": 5183, "Ġserious": 5184, "Ġcustomer": 5185, "odo": 5186, "cor": 5187, "Ġdoor": 5188, "Ġplant": 5189, "Ġbegan": 5190, "Ġdistance": 5191, "()).": 5192, "Ġchance": 5193, "Ġord": 5194, "came": 5195, "Ġprotect": 5196, "ragment": 5197, "ĠNode": 5198, "ening": 5199, "Ñĩ": 5200, "Ġroute": 5201, "ĠSchool": 5202, "hi": 5203, "Ġneighb": 5204, "After": 5205, "licit": 5206, "Ġcontr": 5207, "Ġprimary": 5208, "AA": 5209, "utils": 5210, "Ġbi": 5211, "Red": 5212, "Ġleaders": 5213, "unities": 5214, "Ġgun": 5215, "onth": 5216, "ĠDev": 5217, "Ġcomments": 5218, "arrow": 5219, "amount": 5220, "Range": 5221, "sert": 5222, "Ġupdated": 5223, "ĠMo": 5224, "Ġinform": 5225, "ociety": 5226, "ala": 5227, "Access": 5228, "Ġhab": 5229, "Ġcreat": 5230, "ĠJanuary": 5231, "ĠDay": 5232, "uple": 5233, "document": 5234, "gorith": 5235, "menu": 5236, "ĠOver": 5237, "bb": 5238, "Ġled": 5239, "uri": 5240, "gl": 5241, "Ġbank": 5242, "ayment": 5243, "MD": 5244, "Ġsample": 5245, "Ġhands": 5246, "ĠVersion": 5247, "uario": 5248, "Ġoffers": 5249, "Ġshape": 5250, "Ġsleep": 5251, "Ġachie": 5252, "Ġsold": 5253, "ota": 5254, "Am": 5255, "Ġsafe": 5256, "Store": 5257, "Ġshared": 5258, "Ġpriv": 5259, "Ġsens": 5260, "){": 5261, "Ġremember": 5262, "shared": 5263, "element": 5264, "Ġshoot": 5265, "Vert": 5266, "cout": 5267, "Ġenv": 5268, "run": 5269, "Ġscene": 5270, "device": 5271, "agon": 5272, "aby": 5273, "Ġbecame": 5274, "Ġpark": 5275, "ĠCode": 5276, "riday": 5277, "ĠSeptember": 5278, "Fe": 5279, "Ġsen": 5280, "cing": 5281, "FL": 5282, "Col": 5283, "uts": 5284, "inn": 5285, "aling": 5286, "conf": 5287, "Ġaud": 5288, ".)": 5289, "Ġwrote": 5290, "NG": 5291, "Ġequal": 5292, "ĠRequest": 5293, "Ġserial": 5294, "Ġallows": 5295, "XX": 5296, "Ġmiddle": 5297, "chor": 5298, "Ã¸": 5299, "erval": 5300, "reading": 5301, "Ġescort": 5302, "ĠAugust": 5303, "Ġquickly": 5304, "Ġweap": 5305, "ĠCG": 5306, "ropri": 5307, "ho": 5308, "Ġcop": 5309, "(struct": 5310, "ĠBig": 5311, "Ġvs": 5312, "Ġfrequ": 5313, "Ġactions": 5314, "Ġproper": 5315, "Ġinn": 5316, "Ġobjects": 5317, "Ġmatrix": 5318, "Ġones": 5319, "Ġgreen": 5320, "Ġpaint": 5321, "ools": 5322, "ycl": 5323, "encode": 5324, "olt": 5325, "comment": 5326, "Dir": 5327, "Ġune": 5328, "izont": 5329, "Ġdesigned": 5330, "avi": 5331, "iring": 5332, "tab": 5333, "Ġlayer": 5334, "Ġviews": 5335, "Ġreve": 5336, "rael": 5337, "ĠON": 5338, "rics": 5339, "np": 5340, "Ġcore": 5341, "Main": 5342, "Ġexpert": 5343, "ĉĉčĊ": 5344, "utter": 5345, "ails": 5346, "ĠKing": 5347, "ĠMet": 5348, "addr": 5349, "ora": 5350, "Ġir": 5351, "Min": 5352, "Ġsurpr": 5353, "Ġrepe": 5354, "Ġdirectory": 5355, "-S": 5356, "Ġelection": 5357, "haps": 5358, "cm": 5359, "column": 5360, "ivil": 5361, "inue": 5362, "Ġbeautiful": 5363, "Ġsecret": 5364, "Ġchat": 5365, "ums": 5366, "Ġorigin": 5367, "Ġeffects": 5368, "Ġmanagement": 5369, "illa": 5370, "tk": 5371, "Ġsetting": 5372, "ĠCour": 5373, "Ġhappy": 5374, "Ġfinish": 5375, "Ġcamera": 5376, "ĠVer": 5377, "ĠDemocr": 5378, "ĠHer": 5379, "cons": 5380, "ita": 5381, "{}": 5382, "Ġstuff": 5383, "ĠAR": 5384, "Task": 5385, "hidden": 5386, "eros": 5387, "IGN": 5388, "atio": 5389, "ĠHealth": 5390, "olute": 5391, "Enter": 5392, "'>": 5393, "ĠTwitter": 5394, "ĠCounty": 5395, "scribe": 5396, "Ġhy": 5397, "fit": 5398, "Ġmilitary": 5399, "Ġsale": 5400, "required": 5401, "non": 5402, "hold": 5403, "rim": 5404, "-old": 5405, "ĠDown": 5406, "Ġmention": 5407, "contact": 5408, "oday": 5409, "Ġtown": 5410, "Ġsolution": 5411, "uate": 5412, "elling": 5413, "]->": 5414, "otes": 5415, "ental": 5416, "omen": 5417, "ospital": 5418, "ĠSup": 5419, "Ġslow": 5420, "Ġblue": 5421, "ago": 5422, "Ġlives": 5423, "Ġ^": 5424, "inst": 5425, "enge": 5426, "Ġcustomers": 5427, "Ġcast": 5428, "udget": 5429, "ï¼ģ": 5430, "icens": 5431, "Ġdetermin": 5432, "Selected": 5433, "ueue": 5434, "Ġdark": 5435, "si": 5436, "thern": 5437, "ĠJapan": 5438, "/w": 5439, "PU": 5440, "ĠEast": 5441, "ovie": 5442, "Ġpackage": 5443, "Ġnor": 5444, "Ġapi": 5445, "bot": 5446, "ulate": 5447, "Ġclub": 5448, "Ġloop": 5449, "ione": 5450, "shot": 5451, "Initial": 5452, "Ġplayed": 5453, "register": 5454, "rought": 5455, "acement": 5456, "match": 5457, "raphics": 5458, "AST": 5459, "Ġexisting": 5460, "Ġcomplex": 5461, "DA": 5462, "mo": 5463, "ito": 5464, "Ġanalysis": 5465, "Ġdeliver": 5466, "ĠĠĠĠĠĠĠĠĠĠĠĠĠĠĠĠĊ": 5467, "Ãł": 5468, "ongo": 5469, "ĠEnglish": 5470, "<!--": 5471, "Ġcomputer": 5472, "Ġpas": 5473, "Ġrais": 5474, "Hash": 5475, "Ġmobile": 5476, "Ġowner": 5477, "ĠĠĠĠĠĠĠĠĠĠĠĠĠĠĠĠĠĠĠĠĠĠĠĠĠĠĠĠĠĠĠĠĠĠĠĠĠĠĠĠĠĠĠĠĠĠĠĠĠĠĠ": 5478, "thes": 5479, "Ġattr": 5480, "wd": 5481, "awn": 5482, "Ġtreatment": 5483, "ĠAc": 5484, "impl": 5485, "more": 5486, "pass": 5487, "Ġha": 5488, "Ġleading": 5489, "atar": 5490, "aders": 5491, "dates": 5492, "Ġzu": 5493, "Ġflow": 5494, "Target": 5495, "Ġinvolved": 5496, "Ġio": 5497, "parse": 5498, "$_": 5499, "hest": 5500, "asy": 5501, "Sp": 5502, "Ġshift": 5503, "NT": 5504, "CS": 5505, "Ġeyes": 5506, "iforn": 5507, "ĠĠĠĠčĊ": 5508, "Ġfloor": 5509, "ĠUK": 5510, "(['": 5511, "Ġwish": 5512, "Ġcapt": 5513, "legal": 5514, "ĠIO": 5515, "Ġstage": 5516, "ĠAfr": 5517, "igen": 5518, "ĠSH": 5519, "ells": 5520, "Ġsolid": 5521, "Ġmeeting": 5522, "Ġworked": 5523, "Ġeditor": 5524, "iny": 5525, "Ð¼": 5526, ".Id": 5527, "eff": 5528, "cha": 5529, "USER": 5530, "ĉĉĠĠĠ": 5531, "ipped": 5532, "Ġdict": 5533, "ĠRun": 5534, "Ġang": 5535, "imple": 5536, "Ġmedical": 5537, "connect": 5538, "Ġhour": 5539, "Ġcontroller": 5540, "_message": 5541, "UID": 5542, "Gr": 5543, "anded": 5544, "Ġbooks": 5545, "Ġspeak": 5546, "aming": 5547, "Ġmount": 5548, "Record": 5549, "ondon": 5550, "Ġfelt": 5551, "idge": 5552, "PR": 5553, "Ġmodern": 5554, "Collection": 5555, "CD": 5556, "ĠLo": 5557, "Ġseconds": 5558, "ibly": 5559, "Ġinternational": 5560, "ooth": 5561, "Writer": 5562, "iate": 5563, "Ġcele": 5564, "ĠBit": 5565, "ivo": 5566, "ivery": 5567, "rd": 5568, "Ġcache": 5569, "Ġroll": 5570, "Ġsetup": 5571, "izontal": 5572, "models": 5573, "Ġconsidered": 5574, "=\"../": 5575, "settings": 5576, "ĠRel": 5577, "Ġgrowth": 5578, "Ġmix": 5579, "ĠWashington": 5580, "ĠIM": 5581, "áº": 5582, "Ġturned": 5583, "ĠWed": 5584, "Ġ\"-": 5585, "Ġletter": 5586, "ĠĠĠĠĠĠĠĠĠĠĠĠĠĠĠĠĠĠĠĠĠĠĠĠĠĠĠĠ": 5587, "ĠOctober": 5588, "Ġattention": 5589, "Ġcollect": 5590, "ĠHash": 5591, "Ġimag": 5592, "Tree": 5593, "Ġsituation": 5594, "ette": 5595, "IVE": 5596, "Ġvon": 5597, "Ġknowledge": 5598, "Ġdrive": 5599, "Ġblood": 5600, "Ġcit": 5601, "primary": 5602, "Ġconfiguration": 5603, "tee": 5604, "Ġphoto": 5605, "isode": 5606, "Ġgave": 5607, "Ġshot": 5608, "ĠAir": 5609, "Ġmother": 5610, "price": 5611, "Ġmorning": 5612, "Ġtrade": 5613, "Ġdesc": 5614, "Ġparents": 5615, "Api": 5616, "ted": 5617, "wer": 5618, "Ġsy": 5619, "ĠKe": 5620, "ancy": 5621, "Ġpiece": 5622, "ifornia": 5623, "ran": 5624, "iding": 5625, "comes": 5626, "El": 5627, "Long": 5628, "Ġprofessional": 5629, "rupt": 5630, "va": 5631, "Ġcompletely": 5632, "Ġpractice": 5633, "Ġselection": 5634, "Rem": 5635, "ini": 5636, "Ġcam": 5637, "Ġsites": 5638, "pa": 5639, "ÑģÑĤ": 5640, "arrant": 5641, "*(": 5642, "ĠFriday": 5643, "sequ": 5644, "Ġreader": 5645, "Ġmessages": 5646, "Ġbuf": 5647, "Ke": 5648, "Ġnov": 5649, "HP": 5650, "align": 5651, "arily": 5652, "_with": 5653, "Ġdas": 5654, "Ġheard": 5655, "atomic": 5656, "rial": 5657, ")[": 5658, "Ġdise": 5659, "Ġgold": 5660, "Ġfair": 5661, "Ġsales": 5662, "strict": 5663, "save": 5664, "Ġmeasure": 5665, "ecause": 5666, "ĠTable": 5667, "Ġdecided": 5668, "(((": 5669, "Ġopportunity": 5670, "Te": 5671, "ccording": 5672, "ki": 5673, "ĠUN": 5674, "Ġcontain": 5675, "Ġmanager": 5676, "Ġpain": 5677, "ĠFire": 5678, "rome": 5679, "Ġplans": 5680, "Found": 5681, "lay": 5682, "ĠDecember": 5683, "Ġinflu": 5684, "Ãº": 5685, "rench": 5686, "ĠĠĠĠĠĠĠĠĠĠĠĠĠĠĠĠĠĠĠĠĠĠĠĠĠĠĠĠĠĠĠĠĠ": 5687, "azing": 5688, "brief": 5689, "call": 5690, "wood": 5691, "Ġloaded": 5692, "Ġgrand": 5693, "/f": 5694, "imp": 5695, "STR": 5696, "âĢ¢": 5697, "Ġcredit": 5698, "orge": 5699, "Ġdifference": 5700, "ĠPC": 5701, "Ġpub": 5702, "unday": 5703, "Ġfra": 5704, "Ġtried": 5705, "annels": 5706, "send": 5707, "Ġreports": 5708, "Ġadult": 5709, "Ġconsist": 5710, "ĠStreet": 5711, "ĠProgram": 5712, "SQL": 5713, "ouncil": 5714, "-A": 5715, "Ġwhose": 5716, "Ġrelig": 5717, "ĠSex": 5718, "Ġgives": 5719, "none": 5720, "-right": 5721, "ĠNovember": 5722, "ellig": 5723, "utive": 5724, "Äĥ": 5725, "overn": 5726, "Ġeasily": 5727, "Ġideas": 5728, "ĠÐ½": 5729, "lying": 5730, "elle": 5731, "Can": 5732, "Ġpair": 5733, "ngth": 5734, "Ġsplit": 5735, "drop": 5736, "arty": 5737, "ona": 5738, "Ġcapital": 5739, "Ġhear": 5740, "Ġexists": 5741, "emo": 5742, "Run": 5743, "oi": 5744, "ĠMethod": 5745, "Ġeducation": 5746, "Ġlibrary": 5747, "oded": 5748, "Ġcalls": 5749, "here": 5750, "Rel": 5751, "Ġbrand": 5752, "background": 5753, "ga": 5754, "Category": 5755, "ĠIndia": 5756, "Ġing": 5757, "Ġpet": 5758, "FC": 5759, "ĠAnt": 5760, "Ext": 5761, "Ġcharge": 5762, "ened": 5763, "grad": 5764, "EO": 5765, "Ġdepend": 5766, "frame": 5767, "Ġhuge": 5768, "eds": 5769, ";;": 5770, "ĠAM": 5771, "Ġbasic": 5772, "ĠLet": 5773, "lich": 5774, "Ġarm": 5775, "Ġstar": 5776, "Ġfederal": 5777, "Work": 5778, "Ġcarry": 5779, "ĠIsrael": 5780, "={{": 5781, "Ġsaved": 5782, "Ġsyn": 5783, "Ġconstant": 5784, "Ġpositive": 5785, "Ġconduct": 5786, "Ġskin": 5787, "Ġearlier": 5788, "Ġlayout": 5789, "ĠIP": 5790, "OUR": 5791, "Ġtim": 5792, "ĠCard": 5793, "Ġtemper": 5794, "ĠDavid": 5795, "Ġwants": 5796, "Ġpicture": 5797, "Ġvideos": 5798, "ĠComm": 5799, "isions": 5800, "ĠEar": 5801, "-de": 5802, "Ġprem": 5803, "bruary": 5804, "Ġcomponents": 5805, "Ġthroughout": 5806, "Ġpull": 5807, "Ġpages": 5808, "ente": 5809, "respond": 5810, "Ġgas": 5811, "Ġedge": 5812, "Ġbound": 5813, "ACT": 5814, "******": 5815, "Ġcreating": 5816, "ĠCH": 5817, "Br": 5818, "+'": 5819, ".co": 5820, ">::": 5821, "Ġlearning": 5822, "Ġpatients": 5823, "AIN": 5824, "Ġcomfort": 5825, "Ġshown": 5826, "ĠBack": 5827, "ella": 5828, "Ġlat": 5829, "Ġdispatch": 5830, "Ġclasses": 5831, "Ġsuccessful": 5832, "ban": 5833, "Ġobtain": 5834, "ĠSl": 5835, "Ġlack": 5836, "Ġnone": 5837, "sort": 5838, "nap": 5839, "pet": 5840, "bin": 5841, "ĠCanada": 5842, "They": 5843, "Ġdans": 5844, "ĠMat": 5845, "Ġhair": 5846, "Ġcu": 5847, "Ġlaws": 5848, "leted": 5849, "ped": 5850, "Ġpow": 5851, "Ġknew": 5852, "_,": 5853, "ĠMag": 5854, "idents": 5855, "Ġ),": 5856, "Ġwide": 5857, "ĠAuthor": 5858, "stants": 5859, "Ġjobs": 5860, "Ġmath": 5861, "etimes": 5862, "Boolean": 5863, "Ġscope": 5864, "Ġmeas": 5865, "Ġkeys": 5866, "elay": 5867, "Ġexactly": 5868, "'=>'": 5869, "ĠPaul": 5870, "mas": 5871, "fd": 5872, "irit": 5873, "ields": 5874, "oman": 5875, "ĠTop": 5876, "Ġvote": 5877, "Ġmask": 5878, "Ġtheme": 5879, "Ġfine": 5880, "Ġwriter": 5881, "car": 5882, "Ġaltern": 5883, "Ġcopyright": 5884, "Ġdestroy": 5885, "pper": 5886, "Ġgenerate": 5887, "pped": 5888, "ĠĠĠĠĠĠĊ": 5889, "make": 5890, "ĠShow": 5891, "Ġbrowser": 5892, "Ġfavorite": 5893, "Ġcareer": 5894, "Ġhappened": 5895, "Ġrecommend": 5896, "Ġliter": 5897, "grade": 5898, "ĠÂ£": 5899, "Phone": 5900, "oms": 5901, "Ġnamed": 5902, "ipo": 5903, "ĠOther": 5904, "Ġpanel": 5905, "Ġrock": 5906, "Scale": 5907, "Ð´": 5908, "Ġtrust": 5909, "front": 5910, "Ġdemon": 5911, "Ar": 5912, "Net": 5913, "Ġeconomic": 5914, "Ġrace": 5915, "split": 5916, "Ġphysical": 5917, "ifest": 5918, "Ġremoved": 5919, "Ġlooked": 5920, "';": 5921, "ding": 5922, "gest": 5923, "aturday": 5924, "Price": 5925, "Ġdro": 5926, "Ġtowards": 5927, "Ġuns": 5928, "ĠCL": 5929, "Ġrows": 5930, "Ġdefine": 5931, "Ġfather": 5932, "ĠDesign": 5933, "assign": 5934, "mut": 5935, "Device": 5936, "Did": 5937, "ometry": 5938, "ayload": 5939, "Ġhistor": 5940, "ĠParam": 5941, "ĠBoolean": 5942, "Ġnature": 5943, "Ġnation": 5944, "ih": 5945, "Ġdiscover": 5946, "sem": 5947, "Handle": 5948, "ĠTechn": 5949, "Ġwall": 5950, "{$": 5951, "Ġexam": 5952, "opping": 5953, "Ġnearly": 5954, "Ġcool": 5955, "Ġindepend": 5956, "RES": 5957, "ĠMonday": 5958, "Ġsun": 5959, "ously": 5960, "Ġĉ": 5961, "vest": 5962, "atically": 5963, "Ġpredict": 5964, "ying": 5965, "Ġsometimes": 5966, "Ġdrink": 5967, "Ġbul": 5968, "ifications": 5969, "Ġtests": 5970, "Ġalleg": 5971, "Ġattribute": 5972, "ĠNote": 5973, "arts": 5974, "Now": 5975, "Ġinteresting": 5976, "lients": 5977, "Ġpopulation": 5978, "ĠCalifornia": 5979, "Ġgreater": 5980, "Ġthous": 5981, "Ġcosts": 5982, "Ġlaunch": 5983, "ker": 5984, "band": 5985, "ĠPlay": 5986, "Ġband": 5987, "article": 5988, "Ġwer": 5989, "Ã¡s": 5990, "embers": 5991, "usr": 5992, "BA": 5993, "ican": 5994, "ett": 5995, "ulti": 5996, "Ġimmediately": 5997, "zer": 5998, "Ġfigure": 5999, "oes": 6000, "eller": 6001, "ircle": 6002, "ĠSign": 6003, "Ġrank": 6004, "Ġprojects": 6005, "API": 6006, "ĠLine": 6007, "Port": 6008, "Ġpoll": 6009, "Ġgiving": 6010, "idence": 6011, "Ġplot": 6012, "icial": 6013, "Ġwarrant": 6014, "ĠDouble": 6015, "Ġbillion": 6016, "gorithm": 6017, "Ġequipment": 6018, "EE": 6019, "Ġple": 6020, "iation": 6021, "Ġheaders": 6022, "Ġproced": 6023, "ĠObama": 6024, "Ġpa": 6025, "ĠBest": 6026, "imately": 6027, ".\\": 6028, "mploy": 6029, "Ġraw": 6030, "undred": 6031, "Ġbrought": 6032, "throw": 6033, "created": 6034, "CP": 6035, "eps": 6036, "Op": 6037, "Ġgratis": 6038, "Ġinterview": 6039, "Ġpartial": 6040, "bing": 6041, "Author": 6042, "Book": 6043, "ĠPat": 6044, "uman": 6045, "Users": 6046, "plus": 6047, "ĠDirect": 6048, "venue": 6049, "alpha": 6050, "ĠCall": 6051, "imated": 6052, "Ġremain": 6053, "Ġanti": 6054, "ĠLondon": 6055, "Ġsafety": 6056, "oles": 6057, "controller": 6058, "Byte": 6059, "ĠCourt": 6060, "ĠPhil": 6061, "ĠAssoci": 6062, "ena": 6063, "coin": 6064, "reshold": 6065, "enty": 6066, "Ġbeginning": 6067, "Ġzero": 6068, "Ġterr": 6069, "Ġpaid": 6070, "Ġincreased": 6071, "catch": 6072, "-size": 6073, "activity": 6074, "Ġqueue": 6075, "ĠInternational": 6076, "ĠfÃ¼r": 6077, "ursday": 6078, "Ġscient": 6079, "allow": 6080, "axis": 6081, "Ġappropri": 6082, "edge": 6083, "Success": 6084, "entifier": 6085, ":\\": 6086, "xis": 6087, "Ġmaximum": 6088, "arks": 6089, "Ġbirth": 6090, "Ġmaybe": 6091, "files": 6092, "Ġlimited": 6093, "_check": 6094, "look": 6095, "plies": 6096, "Ġmovement": 6097, "'].": 6098, "Ġbroad": 6099, "ĠBE": 6100, "ĠEvery": 6101, "Admin": 6102, "Ġfans": 6103, "pared": 6104, "ĊĠĠĠĠĊ": 6105, "Ġforeign": 6106, "Ġpan": 6107, "Ġtour": 6108, "ĠOrder": 6109, "Ġmoving": 6110, "Ġauf": 6111, "Call": 6112, "ÅŁ": 6113, "ventory": 6114, "Ġfully": 6115, "Ġannounced": 6116, "Ġagreed": 6117, "rie": 6118, "Ġearn": 6119, "Ġmaterials": 6120, "ffff": 6121, "vg": 6122, "Ġunless": 6123, "LOG": 6124, "Ġsexual": 6125, "-time": 6126, "Ġcoach": 6127, "Ġsupported": 6128, "Ġphotos": 6129, "iform": 6130, ")]": 6131, "rier": 6132, "Ġdialog": 6133, "aver": 6134, "ige": 6135, ")+": 6136, ":[": 6137, "ĠCong": 6138, "Ġpressure": 6139, "Ġteams": 6140, "Sign": 6141, "begin": 6142, "rian": 6143, "LS": 6144, "Ġimprove": 6145, "ĠSunday": 6146, "Ġdefinition": 6147, "iger": 6148, "rollers": 6149, "Ġthinking": 6150, "-F": 6151, "Ġemerg": 6152, "plates": 6153, "ĠUSA": 6154, "ĠAlso": 6155, "rev": 6156, "Ġenable": 6157, "ĠCO": 6158, "Ġconcept": 6159, ")-": 6160, "ĠâĢ¢": 6161, "Ġsets": 6162, "Ġmeaning": 6163, "emon": 6164, "ĠCons": 6165, "eder": 6166, "anned": 6167, "icensed": 6168, "ĠSuper": 6169, "Ġdaily": 6170, "Ġmulti": 6171, "Ġchalleng": 6172, "Ġstrict": 6173, "jo": 6174, "inton": 6175, "Only": 6176, ">{": 6177, "Ġvehicle": 6178, "íķ": 6179, "ĠPlayer": 6180, "ĠDel": 6181, "Ġpool": 6182, "nesday": 6183, "Local": 6184, "Ġorganization": 6185, "render": 6186, "ĠApplication": 6187, "Ġsummer": 6188, "expected": 6189, "NA": 6190, "Ġrap": 6191, "Ġsurface": 6192, "Ġvariables": 6193, "Ġopin": 6194, "Ð°Ð½": 6195, "Ġworkers": 6196, "Co": 6197, "ughter": 6198, "Ġmaster": 6199, "Ġstories": 6200, "Ġcelebr": 6201, "inese": 6202, "BS": 6203, "ĠCommand": 6204, "kg": 6205, "Ġsteps": 6206, "ĠBen": 6207, "ĠPerson": 6208, ",y": 6209, "Ġofficials": 6210, "Ġskills": 6211, "Ġbuilder": 6212, "Ġgar": 6213, "Account": 6214, "ĠAuth": 6215, "ĠAT": 6216, "nn": 6217, "Ġeffective": 6218, "Ġtools": 6219, "ARD": 6220, "Ġdigital": 6221, "Double": 6222, "ĠFind": 6223, "RC": 6224, "Ġinline": 6225, "/r": 6226, "Ġintent": 6227, "aight": 6228, "Ġrequests": 6229, "Ġdebug": 6230, "Ġspent": 6231, "ÅĽ": 6232, "Ġprincip": 6233, "cludes": 6234, "Ġsurv": 6235, "media": 6236, "ĠFebruary": 6237, "ĠMac": 6238, "Ġmissing": 6239, "Ġwife": 6240, "Ġtalking": 6241, "ĠMake": 6242, "Ġcart": 6243, "Ġlocated": 6244, "Enc": 6245, "-a": 6246, "chron": 6247, "Ġcards": 6248, "Ġpers": 6249, "ĠYes": 6250, "atever": 6251, "ĠAng": 6252, "olar": 6253, "ĠEven": 6254, "Ġaccur": 6255, "ĠPower": 6256, "ĠGold": 6257, "clear": 6258, "Process": 6259, "Ġrecords": 6260, "Ġkilled": 6261, "Ġpurpose": 6262, "panel": 6263, "ÃŃa": 6264, "Ġexerc": 6265, "WS": 6266, "/L": 6267, "Ġsin": 6268, "ĠdÃ©": 6269, "roke": 6270, "Sl": 6271, "ugh": 6272, "ears": 6273, "Ġpointer": 6274, "Ġhop": 6275, "allery": 6276, "Ġobs": 6277, "covery": 6278, "ĉĉĉĉĉĉĉĉĉĉ": 6279, "ocity": 6280, "itchen": 6281, "ulations": 6282, "Ġ).": 6283, "straints": 6284, "vention": 6285, "Ġrequires": 6286, "ĠOper": 6287, "ME": 6288, "allet": 6289, "Ġnorm": 6290, "exas": 6291, "Ġprograms": 6292, "Ġweak": 6293, "'.$": 6294, "uing": 6295, "ĉĠĠĠĠĠĠĠ": 6296, "Ġmil": 6297, "Ġfirm": 6298, "initely": 6299, "apse": 6300, "atisf": 6301, "Ġdemand": 6302, "Ġdescribed": 6303, "Ġplaces": 6304, "VID": 6305, "Ġalone": 6306, "Ġexport": 6307, "Ġvec": 6308, "ĠMax": 6309, "Ġactivities": 6310, "ictures": 6311, "gener": 6312, "Ġma": 6313, "Ĥ¬": 6314, "Ġexpression": 6315, "ĠMost": 6316, "Ġtesting": 6317, "EC": 6318, "Ġadjust": 6319, "Ġagree": 6320, "ighest": 6321, "ĠLaw": 6322, ".Y": 6323, "><?": 6324, "Ġpod": 6325, "Ġdescribe": 6326, "ĠEuropean": 6327, "-sh": 6328, "Ġconvers": 6329, "ĠAv": 6330, "?\"": 6331, "chen": 6332, "ima": 6333, "Document": 6334, "Ġoperations": 6335, "win": 6336, "Ġscen": 6337, "/h": 6338, "ĠSC": 6339, "Ġexplo": 6340, ":%": 6341, "Ġdirector": 6342, "ONG": 6343, "Ġyield": 6344, "Ġfeet": 6345, "ĠSearch": 6346, "ĠIl": 6347, "Ġrestaur": 6348, "duc": 6349, "Ġinteger": 6350, "Ġhighly": 6351, "ï¼ī": 6352, "Ġoptim": 6353, "Queue": 6354, "ĠLI": 6355, "itation": 6356, "Ġtransport": 6357, "ission": 6358, "fill": 6359, "usion": 6360, "ĠĠĠĠĠĠĠĠĠĠĠĠĠĠĠĠĠĠĠĠĠĠĠĠĠĠĠĠĠĠ": 6361, "-th": 6362, "upt": 6363, "Ġessential": 6364, "anted": 6365, "Ġbenefits": 6366, "iki": 6367, "Ġgirls": 6368, "iced": 6369, "buffer": 6370, "]+": 6371, "Ġsocket": 6372, "Ġprices": 6373, "ĠFre": 6374, "Ġsat": 6375, "Ġwood": 6376, "ĠAdmin": 6377, "dk": 6378, "Ġreset": 6379, "Ġforms": 6380, "ĠÐ¸": 6381, "orary": 6382, "ategor": 6383, "Ġdt": 6384, "Total": 6385, "construct": 6386, "ilies": 6387, "ÐµÑĢ": 6388, "Ġinstruction": 6389, "yled": 6390, "Ġinternet": 6391, "ady": 6392, "faces": 6393, "jection": 6394, "ĠJack": 6395, "Ġrect": 6396, "[-": 6397, "ĠLeg": 6398, "Ġdevices": 6399, "OC": 6400, "oration": 6401, "ertain": 6402, "Ġguard": 6403, "Ġenum": 6404, "voke": 6405, "ĠOk": 6406, "Home": 6407, "ETH": 6408, "Ġdelay": 6409, "Ġpurchase": 6410, "dc": 6411, "Ġaren": 6412, "ĉĉĉĉĊ": 6413, "ror": 6414, "draw": 6415, "lik": 6416, "ĠArg": 6417, "Ġfish": 6418, "(X": 6419, "??": 6420, "Ġjo": 6421, "andard": 6422, "Ġdoll": 6423, "errors": 6424, "Ġleader": 6425, "Ġcompar": 6426, "Ġdoub": 6427, "ĠVis": 6428, "-C": 6429, "ĠStud": 6430, "stitute": 6431, "More": 6432, "ĠDescription": 6433, "ads": 6434, "ĠÐº": 6435, "bind": 6436, "employ": 6437, "-B": 6438, "&&": 6439, "alm": 6440, "Ġculture": 6441, "house": 6442, "Ġsuffer": 6443, "Ġstraight": 6444, "ĠStar": 6445, "udo": 6446, "Ġded": 6447, "ĠCOM": 6448, "Ġconfirm": 6449, "ĠGood": 6450, "________________": 6451, "DR": 6452, "Ġadvert": 6453, "Ġcouldn": 6454, "stack": 6455, "Kit": 6456, "Ġhous": 6457, "Ġmechan": 6458, "rate": 6459, "Ġaudio": 6460, "cores": 6461, "Ġspot": 6462, "Ġincreasing": 6463, "Ġ##": 6464, ")))": 6465, "points": 6466, "Ġcompared": 6467, "lig": 6468, "Ġbehavior": 6469, "ĠBY": 6470, "ĠAtt": 6471, "craft": 6472, "headers": 6473, "ete": 6474, "Ġdetail": 6475, "ĠCommon": 6476, "ston": 6477, "Ġfresh": 6478, "berg": 6479, "Ġmoved": 6480, "ĠSaturday": 6481, "Ġpayload": 6482, "Äĩ": 6483, "Ġbey": 6484, "urer": 6485, "Ġsymbol": 6486, "Ġassum": 6487, "Ġpul": 6488, "Effect": 6489, "Ġhundred": 6490, "Tool": 6491, "aked": 6492, "connection": 6493, "Ġvoice": 6494, "Ġtransaction": 6495, "Ġlinks": 6496, "Err": 6497, "ĠIndian": 6498, "TC": 6499, "atalog": 6500, "ni": 6501, "sign": 6502, "<<\"": 6503, "ji": 6504, "ya": 6505, "Ġdemonstr": 6506, "ulated": 6507, "Ġinstit": 6508, "Ġboost": 6509, "Ġcells": 6510, "olic": 6511, ":</": 6512, "ifying": 6513, "ĠDi": 6514, "orrow": 6515, "Ġcollege": 6516, "Your": 6517, "Ġlargest": 6518, "Ġqui": 6519, "Ġindividuals": 6520, "Ġng": 6521, "SA": 6522, "ĠControl": 6523, "Ġsing": 6524, "Ġsuit": 6525, "ĠĠĠĠĉ": 6526, "SG": 6527, "Ġjump": 6528, "Ġsmart": 6529, "oma": 6530, "ĠExp": 6531, "Ġassist": 6532, "Ġsuccessfully": 6533, "sys": 6534, "ĠCre": 6535, "ĠThursday": 6536, "Ġbur": 6537, "ĠÐ´": 6538, "Ġbeyond": 6539, "Ġnodes": 6540, "Details": 6541, "inct": 6542, "ĠJames": 6543, "Ġaffect": 6544, "exception": 6545, "-se": 6546, "`,": 6547, "}.": 6548, "ĠBO": 6549, "Show": 6550, "Ġrates": 6551, "Ġbon": 6552, "ĠMedia": 6553, "acks": 6554, "Ġstudies": 6555, "Me": 6556, "Ġowners": 6557, "Ġgrowing": 6558, "Variable": 6559, "ĠBel": 6560, "vement": 6561, "onym": 6562, "igo": 6563, "structure": 6564, "Ġcertainly": 6565, "Dep": 6566, "ĠGreen": 6567, "question": 6568, "Ġadding": 6569, "ĠDevelop": 6570, "Ġmach": 6571, "=%": 6572, "ĉĉĠ": 6573, "conds": 6574, "Project": 6575, "Ġreject": 6576, "ĠÎ": 6577, "Ġpoor": 6578, "Ġaware": 6579, "ĠBuild": 6580, "ĠBritish": 6581, "ĠNE": 6582, "Ġnumer": 6583, "rees": 6584, "claim": 6585, "Ġmock": 6586, "Ġom": 6587, "Ġscre": 6588, "eler": 6589, "Ġcorrespond": 6590, "Ġbinary": 6591, "ĠSQL": 6592, "Ġadvant": 6593, "Ġprev": 6594, ".[": 6595, "plier": 6596, "arp": 6597, "Ġclosed": 6598, "Ġencour": 6599, "aud": 6600, "Ġdeveloped": 6601, "Ġpermission": 6602, "operator": 6603, "Ġsym": 6604, "atively": 6605, "Ã©e": 6606, "-color": 6607, "ĠGET": 6608, "ky": 6609, "Ġalthough": 6610, "................": 6611, "Events": 6612, "Ġfailure": 6613, "acle": 6614, "Ġdream": 6615, "Ġdistr": 6616, "Ġau": 6617, "Ġgenerated": 6618, "ĠTeam": 6619, "USE": 6620, "Ġincome": 6621, "Ġeye": 6622, "\"],": 6623, "Support": 6624, "orders": 6625, "ville": 6626, "ĠWednesday": 6627, "olver": 6628, "Ġoppos": 6629, "isation": 6630, "ola": 6631, "Close": 6632, "Ġstrugg": 6633, "ĠPath": 6634, "alar": 6635, "service": 6636, "ĠMichael": 6637, "okes": 6638, "She": 6639, "ĠJava": 6640, "Ġparticularly": 6641, "ĠII": 6642, "Ġdomain": 6643, "Ġreduce": 6644, "real": 6645, "Ġappears": 6646, "Ġcomo": 6647, "ĠUnit": 6648, "ĠGovern": 6649, "ali": 6650, "allel": 6651, "ĠJew": 6652, "Ġcos": 6653, "ĠGlobal": 6654, "Ġtele": 6655, "ben": 6656, "Ġreasons": 6657, "Ġemb": 6658, "ensity": 6659, "lines": 6660, "omin": 6661, "Screen": 6662, "Ð°ÑĤ": 6663, "pects": 6664, "clip": 6665, "foo": 6666, "rent": 6667, "Ġaf": 6668, "Ġdanger": 6669, "iling": 6670, "Names": 6671, "Our": 6672, "Ġdistribution": 6673, "While": 6674, "SL": 6675, "Write": 6676, "Ġcolors": 6677, "Ġpowerful": 6678, "kin": 6679, "Ġdepth": 6680, "ercial": 6681, "ĠCongress": 6682, "ĠMarket": 6683, "under": 6684, "ĠLast": 6685, "ÃŁ": 6686, "greg": 6687, "Ġposts": 6688, "otos": 6689, "Don": 6690, "Ġmicro": 6691, "Ġarrest": 6692, "Ð¿": 6693, "ĠHot": 6694, "ĠIndex": 6695, ";&": 6696, "#!": 6697, "ĠNor": 6698, "ĠCap": 6699, "-(": 6700, "Ġinterested": 6701, "pear": 6702, "Ġrent": 6703, "Ġalbum": 6704, "olicy": 6705, "phere": 6706, "Ġaxis": 6707, "ĠBusiness": 6708, "urr": 6709, "Ġminimum": 6710, "endor": 6711, "ĠSD": 6712, "ĠInternet": 6713, "Exp": 6714, "iverse": 6715, "MM": 6716, "Ġobvious": 6717, "Ġbasis": 6718, "Ġscience": 6719, "Ġbudget": 6720, "izations": 6721, "PA": 6722, "Ġflags": 6723, "pret": 6724, "Ġvariety": 6725, "Ġtruth": 6726, "dt": 6727, "Ġgone": 6728, "Ġbattle": 6729, "ĠSil": 6730, "rf": 6731, "uda": 6732, "Ġerot": 6733, "ĠCam": 6734, "Ġstation": 6735, "cheme": 6736, "ĠSun": 6737, "Ġfinished": 6738, "Ġshop": 6739, "ĠKore": 6740, "Ġeight": 6741, "ND": 6742, ">,": 6743, "\"><?": 6744, "Transaction": 6745, "Ġmail": 6746, "rey": 6747, "results": 6748, "Ġnav": 6749, "Make": 6750, "ĠSur": 6751, "Ġoverall": 6752, "ĠInformation": 6753, "Ġconstruction": 6754, "but": 6755, "Ġmedic": 6756, "Ġduration": 6757, "itness": 6758, "agent": 6759, "AV": 6760, "Ġseven": 6761, "olf": 6762, "Ġcalling": 6763, "Ġans": 6764, "orizontal": 6765, "ĠStatus": 6766, "ĠOnline": 6767, "RR": 6768, "ĠRich": 6769, "ĠHill": 6770, "Ġbrain": 6771, "Ġfollowed": 6772, "emic": 6773, "Ġslight": 6774, "Ġinsurance": 6775, "Ġabstract": 6776, "ĠSum": 6777, "owner": 6778, "ĠClinton": 6779, "Non": 6780, "Ġvolume": 6781, "-L": 6782, "ĠDim": 6783, "ĠMart": 6784, "Ġimplementation": 6785, "urred": 6786, "Ġlarger": 6787, "'+": 6788, "ĠĠĠĠĠĠĠĠĠĠĠĠĠĠĠĠĠĠĠĠĠĠĠĠĠĠĠĠĠĠĠĠĠĠĠĠĠĠĠĠĠĠĠĠĠĠĠĠĠĠĠĠĠĠĠ": 6789, "Draw": 6790, "nel": 6791, "ĠNetwork": 6792, "Ġtit": 6793, "Axis": 6794, "Ġcompleted": 6795, "Ġmur": 6796, "Ġcolumns": 6797, "xc": 6798, "Ġsupply": 6799, "iminal": 6800, "Ġspr": 6801, "================================================================": 6802, "Ġunits": 6803, "mi": 6804, "replace": 6805, "à¹": 6806, "antic": 6807, "Ġpayment": 6808, "ĠApple": 6809, "gin": 6810, "#+": 6811, "lands": 6812, "Ġsqu": 6813, "Ġfactor": 6814, "dec": 6815, "Ġstrength": 6816, "Ġboy": 6817, "Ġbalance": 6818, "Ġsources": 6819, "screen": 6820, "ĠAmazon": 6821, "Ġhidden": 6822, "ÐµÑĤ": 6823, "Ġeat": 6824, "ĠÂ»": 6825, "Ġtrigger": 6826, "anager": 6827, "Ġtro": 6828, "Ġclaims": 6829, "ford": 6830, "ĠCompany": 6831, "Ġgift": 6832, ",:": 6833, "handle": 6834, "Ġproduce": 6835, "/lib": 6836, "'];": 6837, "arc": 6838, "ander": 6839, "ĠEngine": 6840, "Ġattributes": 6841, "task": 6842, "<=": 6843, "(N": 6844, "Ġwarm": 6845, "which": 6846, "ĠFore": 6847, "agnost": 6848, "mys": 6849, "Ġtal": 6850, "ĠSal": 6851, "gi": 6852, "ĠPrint": 6853, "ĠÐ¾": 6854, "Ġflash": 6855, "roperty": 6856, "ĠMill": 6857, "bi": 6858, "contr": 6859, "ĠSam": 6860, "Ġnegative": 6861, "kit": 6862, "Ġsett": 6863, "abe": 6864, "Ġburn": 6865, "Ġsociety": 6866, "Cache": 6867, "ĠSecurity": 6868, "ceive": 6869, "Ġclients": 6870, "Ġproviding": 6871, "Ġrout": 6872, "material": 6873, "ĠSer": 6874, "ĠOffice": 6875, "Ġfoc": 6876, "Ġexcell": 6877, "Ġcat": 6878, "normal": 6879, "Ġdetermine": 6880, "Pane": 6881, "Ġemployees": 6882, "ĠTexas": 6883, "Ġtraff": 6884, "ĠReport": 6885, "anta": 6886, "ĠBox": 6887, "Ġpartner": 6888, "EB": 6889, "Ġfeeling": 6890, "Ġcivil": 6891, "-v": 6892, "'}": 6893, "AF": 6894, "Ġloading": 6895, "ĠOnly": 6896, "ĠGl": 6897, "CO": 6898, "Ġstrategy": 6899, "('./": 6900, "Ġship": 6901, "poses": 6902, "Ġsignal": 6903, "Ġalpha": 6904, "Ġreplace": 6905, "counter": 6906, "bservable": 6907, "ela": 6908, "hash": 6909, "ĠEmail": 6910, "Ġrefer": 6911, "iques": 6912, "Step": 6913, "Ġahead": 6914, "ĠServices": 6915, "essor": 6916, "Ġpun": 6917, "Ġappropriate": 6918, "akers": 6919, "osen": 6920, "posing": 6921, "Ġagent": 6922, "Ġtransfer": 6923, "Ġinvalid": 6924, "ĠResearch": 6925, "Ġgay": 6926, "Ġjournal": 6927, "ĠWell": 6928, "Spec": 6929, "Ġol": 6930, "Ġspend": 6931, "ĠAustralia": 6932, "Match": 6933, "ĠĠĠĠĠĠĠĠĠĠĠĠĠĠĠĠĠĠĠĠĠĠĠĠĠĠĠĠĠĠĠĠĠĠĠĠĠ": 6934, "izable": 6935, "clusive": 6936, "_valid": 6937, "Ġquarter": 6938, "yan": 6939, "ĠEdit": 6940, "arden": 6941, "Ġfrag": 6942, "Bit": 6943, "zi": 6944, "aine": 6945, "udd": 6946, "Ġcash": 6947, "Ġeen": 6948, "Ġcommercial": 6949, "ĠVideo": 6950, "Ġfixed": 6951, "Ġapplications": 6952, "ĠRussia": 6953, "itect": 6954, "_(": 6955, "ĠBlock": 6956, "Ġsan": 6957, "ĠTom": 6958, "Ġperhaps": 6959, "Ġsig": 6960, "levant": 6961, "Ġcorpor": 6962, "ronic": 6963, "xe": 6964, "Ġeth": 6965, "Some": 6966, "pop": 6967, "Ġtend": 6968, "Ġreviews": 6969, "Ġwild": 6970, "Ġdegree": 6971, ".O": 6972, "nil": 6973, "Ġdisabled": 6974, "Parent": 6975, "Ġnotes": 6976, "istrict": 6977, "Ġlogging": 6978, "ĠMal": 6979, "DM": 6980, "ĠRobert": 6981, "elen": 6982, "layout": 6983, "fol": 6984, "']))": 6985, "ĠJer": 6986, "Ġfan": 6987, "ĠCustom": 6988, "=\"\"": 6989, "ĠDie": 6990, ".utils": 6991, "Ġtrip": 6992, "MB": 6993, "Ġsoft": 6994, "Ġapplicable": 6995, "Ġupper": 6996, "Here": 6997, "wp": 6998, "ĠServer": 6999, "Ġchem": 7000, "Ġhighest": 7001, "ĠSelect": 7002, "ĠWhy": 7003, "Sec": 7004, "heel": 7005, "Operation": 7006, "Ġconnected": 7007, "irmed": 7008, "Ġcitiz": 7009, "ĠChe": 7010, "Ġforces": 7011, "Ġwww": 7012, "Root": 7013, "Many": 7014, "icip": 7015, "rgan": 7016, "ĠTor": 7017, "ĠPress": 7018, "ĠMor": 7019, "-line": 7020, "uled": 7021, ">\\": 7022, "Ġthus": 7023, "ĠRegister": 7024, "hol": 7025, "ĠChinese": 7026, "Ġposted": 7027, "Ġmagn": 7028, "abilities": 7029, "Ġdisease": 7030, "Ġremains": 7031, "ĠProf": 7032, "-form": 7033, "Ġcin": 7034, "organ": 7035, "icate": 7036, "Ġstress": 7037, "]*": 7038, "orry": 7039, "Ġdied": 7040, "mat": 7041, "Ġstarts": 7042, "Ġruns": 7043, "Ġguide": 7044, "entials": 7045, "dict": 7046, "ĠSize": 7047, "uler": 7048, "Ġresponsible": 7049, "Ġcontaining": 7050, "ĠPrice": 7051, "||": 7052, "FS": 7053, "Ġemp": 7054, "Ġsuff": 7055, "pth": 7056, "pute": 7057, "Ġmarketing": 7058, "ĠWH": 7059, "ĠSie": 7060, "+=": 7061, "Ġconsult": 7062, "Ġsigned": 7063, "Ġsequence": 7064, "lee": 7065, "Ġrequirements": 7066, "hy": 7067, "Express": 7068, "MT": 7069, "sey": 7070, "Ġult": 7071, "elligence": 7072, "Ġanaly": 7073, "Ġdress": 7074, "engine": 7075, "ĠGreat": 7076, "ĠAndroid": 7077, "ĠAlex": 7078, "mode": 7079, "Dictionary": 7080, "Ġfamilies": 7081, "ĠRussian": 7082, "ĠTimes": 7083, "$(": 7084, "Profile": 7085, "ches": 7086, "Ġlegis": 7087, "unes": 7088, "agen": 7089, "ĠHand": 7090, "Iter": 7091, "Ġbiggest": 7092, "Ġpolic": 7093, "Ġshowed": 7094, "ĠElement": 7095, "Ġtopic": 7096, "âĢĶâĢĶ": 7097, "road": 7098, "ĠBank": 7099, "record": 7100, "Ġpartners": 7101, "ĠRef": 7102, "essions": 7103, "Ġassess": 7104, "ĠParty": 7105, "produ": 7106, "LC": 7107, "Ġul": 7108, "hide": 7109, "copy": 7110, "UTF": 7111, "čĊčĊčĊ": 7112, "ĠLin": 7113, "una": 7114, "ugar": 7115, "Ġadministration": 7116, "Ġopening": 7117, "Ġscan": 7118, "Ġcontinued": 7119, "component": 7120, "Ġhappens": 7121, "ummy": 7122, "ĠPR": 7123, "di": 7124, "Ġwaiting": 7125, "Tab": 7126, "Ġeconomy": 7127, "ĠFrench": 7128, "Ġfant": 7129, "SH": 7130, "Ġstreet": 7131, "Ġmale": 7132, "anging": 7133, "ĠBill": 7134, "Ġpreviously": 7135, "BI": 7136, "ĠSecret": 7137, "Ġmist": 7138, "ĠField": 7139, "ups": 7140, "ĠProcess": 7141, "Ġkept": 7142, "ĠOT": 7143, "Ġtraditional": 7144, ".i": 7145, "amin": 7146, "Ġhelps": 7147, "Any": 7148, "origin": 7149, "ju": 7150, "desc": 7151, "ĠAccount": 7152, "ktop": 7153, "olly": 7154, "Ġê": 7155, "Ġut": 7156, "Ġcentral": 7157, ".An": 7158, "Ġsatisf": 7159, "GR": 7160, "ĠFull": 7161, "Ġheat": 7162, "iber": 7163, "Ġonto": 7164, "mos": 7165, "Ġfactory": 7166, "\".$": 7167, "aws": 7168, "Ġguest": 7169, "Ġmal": 7170, "Ġreached": 7171, "Ġmouse": 7172, "Ġchallenge": 7173, "ĠTem": 7174, "Ġterror": 7175, "Ġextract": 7176, "Ġseparate": 7177, "Ġmir": 7178, "help": 7179, "Ġcapacity": 7180, "ĠProperty": 7181, "kan": 7182, "ĠLight": 7183, "Ġunderstanding": 7184, "Ġeasier": 7185, "Ġenh": 7186, "Ġfat": 7187, "Ġprotest": 7188, "amm": 7189, "-of": 7190, "ils": 7191, "ĠOh": 7192, "Ġpsych": 7193, "inds": 7194, "Ġrelative": 7195, "shop": 7196, "short": 7197, "ĠSand": 7198, "uestion": 7199, "Ġfear": 7200, "Ġschools": 7201, "Ġserve": 7202, "zone": 7203, "Ġmajority": 7204, "example": 7205, "Ġlang": 7206, "ĉĠĠ": 7207, "Register": 7208, "endo": 7209, "Ġprocessing": 7210, "Ġeg": 7211, "COM": 7212, "ĠBlue": 7213, "iro": 7214, "Ġremote": 7215, "ĠIT": 7216, "#!/": 7217, "Ġredistrib": 7218, "raz": 7219, "ĠSince": 7220, "ĠTur": 7221, "Background": 7222, "===": 7223, "Ġreflect": 7224, "Ġpros": 7225, "Ġwhom": 7226, "ĠAre": 7227, "ĠThom": 7228, "gu": 7229, "Ġmonitor": 7230, "rm": 7231, "Ġpatient": 7232, "Ġgain": 7233, "Inst": 7234, "Ġdies": 7235, "Area": 7236, "Ġgrat": 7237, "Ġreality": 7238, "ordinate": 7239, "olved": 7240, "ĠVar": 7241, "dl": 7242, "Ġappend": 7243, "Ġdynamic": 7244, "ordinates": 7245, "Ġbatter": 7246, "space": 7247, "La": 7248, "ĠSource": 7249, "Ġdos": 7250, "ĠBoard": 7251, "ĠAL": 7252, "ĠMer": 7253, "Ġmiles": 7254, "izz": 7255, "Ġbenefit": 7256, "Ġintegr": 7257, "ulo": 7258, "ĠDiv": 7259, "Ġton": 7260, "oth": 7261, "ervation": 7262, "edom": 7263, "Ġbaby": 7264, "ceived": 7265, "riority": 7266, "ĠLocal": 7267, "riage": 7268, "Ġattacks": 7269, "Ġhospital": 7270, "Ġfemale": 7271, "ĠLogin": 7272, "ĠFlor": 7273, "Ġchain": 7274, "ashion": 7275, "Save": 7276, "Ġfarm": 7277, "Ġknows": 7278, "Ġgenerally": 7279, "ipeline": 7280, "Ġmeant": 7281, "encia": 7282, "Ġnicht": 7283, "Ġcontents": 7284, "PM": 7285, "chedule": 7286, "CG": 7287, "job": 7288, "ĠReal": 7289, "uer": 7290, "firm": 7291, "ĠØ": 7292, "etro": 7293, "Ġspeech": 7294, "Ġthr": 7295, "Ġwarn": 7296, "Ġheavy": 7297, "Ne": 7298, "Ġinvestigation": 7299, "Math": 7300, "Ġchurch": 7301, "Ġdespite": 7302, "chain": 7303, "Ġwhatever": 7304, "arian": 7305, "fn": 7306, "Ġmeta": 7307, "Ġregarding": 7308, "mes": 7309, "ĠIntent": 7310, "Ġresolve": 7311, "poss": 7312, "ira": 7313, "force": 7314, "oice": 7315, "Ã¢": 7316, "Ġupdates": 7317, "Arr": 7318, "ĠÑ": 7319, "testing": 7320, "Ġtoward": 7321, "ntax": 7322, "ëĭ": 7323, "Ġlisten": 7324, "Ġgoals": 7325, "Dr": 7326, "Ġrare": 7327, "Ġtrail": 7328, "Keys": 7329, "Cal": 7330, "Car": 7331, "ĠPeople": 7332, "classes": 7333, "Reference": 7334, "emb": 7335, "activ": 7336, "Ġprim": 7337, "redict": 7338, "Ġrad": 7339, "Ġspread": 7340, "Ġclock": 7341, "Ġvir": 7342, "editor": 7343, "Ġefforts": 7344, "Ġbranch": 7345, "Ġindust": 7346, "Ġmotor": 7347, "Ġamb": 7348, "Ġrencont": 7349, "ĠChristian": 7350, "ĠAmericans": 7351, "full": 7352, "Ġcaused": 7353, "ĠContent": 7354, "Ġbath": 7355, "ĠEach": 7356, "Ġradio": 7357, "achment": 7358, "uzz": 7359, "Ġrestrict": 7360, "abin": 7361, "Ġextension": 7362, "Ġessay": 7363, "Ġhat": 7364, "aviour": 7365, "\":[": 7366, "Ġoffered": 7367, "Ġvill": 7368, "bc": 7369, "ĠMiss": 7370, "ĠBer": 7371, "ĠLike": 7372, "Ġhelped": 7373, "Ġspirit": 7374, "ĠApache": 7375, "ws": 7376, "Ġtherefore": 7377, "Ġpeace": 7378, "Ġincor": 7379, "Ġminor": 7380, "ipes": 7381, "city": 7382, "trie": 7383, "Ġopened": 7384, "nu": 7385, "tf": 7386, "margin": 7387, "Ġpi": 7388, "Ġeq": 7389, "bd": 7390, "Fields": 7391, "ĠTree": 7392, "Ġban": 7393, "istan": 7394, "ĊĠĠĠĠĠĠĠĠĊ": 7395, "Ġproduced": 7396, "system": 7397, "Mark": 7398, "Ġbg": 7399, "Ġconstit": 7400, "ĠLeague": 7401, "Ġmission": 7402, "clusion": 7403, "!\"": 7404, "Ð·": 7405, "break": 7406, "Ġther": 7407, "Transform": 7408, "Ġfootball": 7409, "route": 7410, "Ġbag": 7411, "overs": 7412, "Ġenabled": 7413, "Ġrac": 7414, "(I": 7415, "CR": 7416, "ancing": 7417, "Ġmanaged": 7418, "Ġmac": 7419, "ĠAuto": 7420, "amente": 7421, "Ġpin": 7422, "acking": 7423, "Ġoccas": 7424, "person": 7425, "Ġti": 7426, "Ġglass": 7427, "ĠSimple": 7428, "Print": 7429, "Ġsurround": 7430, "NO": 7431, "ĠĠĠĠĠĠĠĠčĊ": 7432, "ĠMany": 7433, "Ġweekend": 7434, "Ġsomew": 7435, "small": 7436, "fields": 7437, "oon": 7438, "atile": 7439, "ye": 7440, "Ġvous": 7441, "Ġolder": 7442, "Ġgam": 7443, "Ġextremely": 7444, "Ġhet": 7445, "enum": 7446, "Ġtimer": 7447, "Ġcritical": 7448, "Ġexecute": 7449, "Ġshowing": 7450, "Role": 7451, "that": 7452, "cher": 7453, "ĠâĨ": 7454, "XT": 7455, "Ġthousands": 7456, "Ġresp": 7457, "olut": 7458, "Ag": 7459, "ĠTwo": 7460, "Ġbecomes": 7461, "Ġhus": 7462, "theme": 7463, "urb": 7464, "Ġlose": 7465, "Lower": 7466, "Ġvel": 7467, "Ġdefense": 7468, "condition": 7469, "Ġbes": 7470, "Ġdry": 7471, "Ġscroll": 7472, "Ð¾ÑĢ": 7473, "ĠRest": 7474, "Where": 7475, "oods": 7476, "ĠJes": 7477, "Ġwire": 7478, "Ġstrings": 7479, "gment": 7480, "Ġmatches": 7481, "Ġelectric": 7482, "Ġexcellent": 7483, "ĠCouncil": 7484, "idade": 7485, "push": 7486, "Ġtasks": 7487, "Ġrich": 7488, "sa": 7489, "ĠSmith": 7490, "pective": 7491, "ista": 7492, "Ġagency": 7493, "Ġsich": 7494, "ologies": 7495, "Ġtrial": 7496, "alysis": 7497, "about": 7498, "',$": 7499, "Ġplaced": 7500, "Ġdan": 7501, "ĉĠĠĠĠĠ": 7502, "Ġweather": 7503, "Ġdestination": 7504, "iece": 7505, "Ġprovider": 7506, "plex": 7507, "Note": 7508, "Ġplanning": 7509, "attribute": 7510, "PRO": 7511, "atches": 7512, "Ġseeing": 7513, "Ġcancel": 7514, "Ġvisual": 7515, "ĠCurrent": 7516, "ĠCollege": 7517, "ĠRock": 7518, "Ġagreement": 7519, "ĠStore": 7520, "oving": 7521, "Ġcorner": 7522, "ampions": 7523, "Fin": 7524, "Ġprotection": 7525, "Ġfi": 7526, "Play": 7527, ")}": 7528, "-z": 7529, "Ġtransition": 7530, "igin": 7531, "Ġcandidate": 7532, "ĠUnion": 7533, "_values": 7534, "cle": 7535, "Ġtrend": 7536, "wide": 7537, "aren": 7538, "Loc": 7539, "ĠBay": 7540, "Ġsmaller": 7541, "ius": 7542, "well": 7543, "Ġcriminal": 7544, "Ġconflic": 7545, "bert": 7546, "Ġinvestment": 7547, "custom": 7548, "ĠSession": 7549, "ania": 7550, "ĠMass": 7551, "Ġviolence": 7552, "Argument": 7553, "_email": 7554, "Ġbelong": 7555, "Ġenemy": 7556, "ema": 7557, "ĠAddress": 7558, "Ġinner": 7559, "ĠContact": 7560, "ĠCA": 7561, "lot": 7562, "Ġpictures": 7563, "ĠSupport": 7564, "Layer": 7565, "Sum": 7566, "Ã¦": 7567, "ĠLook": 7568, "uous": 7569, "Lib": 7570, "team": 7571, "EP": 7572, "hat": 7573, "apsed": 7574, "Ġlabels": 7575, "quis": 7576, "ĠStream": 7577, "ĠCommit": 7578, "\"}": 7579, "Ġangle": 7580, "ĠBecause": 7581, "%%%%%%%%": 7582, "Ġaim": 7583, "Ġstick": 7584, "answer": 7585, "Ġclin": 7586, "ĠIsl": 7587, "Ġstyles": 7588, "Ġborn": 7589, "Ġscr": 7590, "Ġexpand": 7591, "Ġraised": 7592, "------------------------------------------------": 7593, "HTTP": 7594, ">)": 7595, "_char": 7596, "resource": 7597, "Ġepisode": 7598, "ĠEs": 7599, "ĠEarth": 7600, "ÂłÂł": 7601, "ĠSou": 7602, "uis": 7603, "types": 7604, "Ġmas": 7605, "Ġfav": 7606, "Ġconstruct": 7607, "eras": 7608, "roperties": 7609, "Ġexternal": 7610, "Ġapplied": 7611, "Ġprefix": 7612, "oted": 7613, "lers": 7614, "Ġcold": 7615, "ĠSP": 7616, "ĠChurch": 7617, "ĠOutput": 7618, "losed": 7619, "ificate": 7620, "operation": 7621, "herit": 7622, "osh": 7623, "Direction": 7624, "ĠFrank": 7625, "Ġfinding": 7626, "ãĥ»": 7627, "ses": 7628, "Ġcrow": 7629, "=='": 7630, "Ġsand": 7631, "Ġrid": 7632, "iture": 7633, "Ġentre": 7634, "Ġobserv": 7635, "Ġvac": 7636, "ðŁ": 7637, "-T": 7638, "Art": 7639, "night": 7640, "Ġexchange": 7641, "Ġdistrict": 7642, "Ġdepartment": 7643, "Ġdocuments": 7644, "Ġcentury": 7645, "ĠNext": 7646, "Host": 7647, "Ġsusp": 7648, "-P": 7649, "rend": 7650, "uite": 7651, "isters": 7652, "ĠAnn": 7653, "wt": 7654, "ati": 7655, "ĠHTML": 7656, "when": 7657, "Directory": 7658, "Ġshut": 7659, "edy": 7660, "Ġhealthy": 7661, "Ġtemperature": 7662, "ĠGen": 7663, "Ġmetal": 7664, "Ġsubmit": 7665, "ĠDO": 7666, "Ġattract": 7667, "ĠWord": 7668, "Ġll": 7669, "Ġseemed": 7670, "ko": 7671, "Ġlabor": 7672, "Ġasset": 7673, "you": 7674, "Ġcars": 7675, "ĠrÃ©": 7676, "Ġsquare": 7677, "âĢĿ,": 7678, "apes": 7679, "Ġthanks": 7680, "Ġtick": 7681, "Ġexperiment": 7682, "Ġprison": 7683, "tree": 7684, "fast": 7685, "Ġguar": 7686, "crete": 7687, "ĠTim": 7688, "Ġclearly": 7689, "ĠRepublican": 7690, "Ġjustify": 7691, "Ð¸ÑĤ": 7692, "ĉĠĠĠĠ": 7693, "cache": 7694, ";//": 7695, "Ġpresence": 7696, "Ġfactors": 7697, "Ġemployee": 7698, "]))": 7699, "Member": 7700, "bor": 7701, "ĠMex": 7702, "ailure": 7703, "ĠNet": 7704, "Ġreli": 7705, "EG": 7706, "Ġteen": 7707, "loss": 7708, "Ġleaving": 7709, "Ġbeat": 7710, "Ġminute": 7711, "subscribe": 7712, "Ġcancer": 7713, "/{": 7714, "BL": 7715, "Ġspan": 7716, "ĠChild": 7717, "Center": 7718, "Ġearth": 7719, "YS": 7720, "ĠLevel": 7721, "Ġsea": 7722, "illing": 7723, "ĠĠĠĠĊĠĠĠĠĊ": 7724, "ĠEst": 7725, "cos": 7726, "swers": 7727, "Editor": 7728, "ront": 7729, "ĠMP": 7730, "expr": 7731, "ĠLife": 7732, "Ã¶r": 7733, "Ġattend": 7734, "ĠQue": 7735, "Ġspecies": 7736, "-D": 7737, "Ġaus": 7738, "Struct": 7739, "Ġadvantage": 7740, "oston": 7741, "initial": 7742, "Ġtruly": 7743, "Ġcompare": 7744, "orney": 7745, "Ġspect": 7746, "Full": 7747, "bes": 7748, "Ġvisible": 7749, "Ġmess": 7750, "stances": 7751, "Ġcloud": 7752, "Ġfurn": 7753, "icago": 7754, "Ġtraffic": 7755, "Ġfol": 7756, "rypto": 7757, "Ġdeclar": 7758, "Ġslot": 7759, "ĠExt": 7760, "ĠEngland": 7761, "ĠUnder": 7762, "Ġta": 7763, "letter": 7764, "Ġofficer": 7765, "ĠDonald": 7766, "Yes": 7767, "mployee": 7768, "Ġopinion": 7769, "ĠAut": 7770, "border": 7771, "Ġadvice": 7772, "Ġautomatically": 7773, "isco": 7774, "Ġmm": 7775, "aml": 7776, "Ġgeneration": 7777, "Ġbits": 7778, "clipse": 7779, "Ġunf": 7780, "utors": 7781, "Ġdelta": 7782, "estroy": 7783, "isis": 7784, "<br": 7785, "Ġlimitations": 7786, "Ġended": 7787, "ĠMad": 7788, "ilm": 7789, "These": 7790, "ĠMinister": 7791, "Ġchart": 7792, "Ġindependent": 7793, "Year": 7794, "Ġinstr": 7795, "Ġtags": 7796, "ĠArch": 7797, "stop": 7798, "Progress": 7799, "Ġmi": 7800, "Ġlearned": 7801, "Ge": 7802, "Ġhotel": 7803, "SM": 7804, "Ġcy": 7805, "limit": 7806, "sel": 7807, "Ġmovies": 7808, "Ġsteel": 7809, "oz": 7810, "gb": 7811, "ĠCamp": 7812, "site": 7813, "ĠCore": 7814, "Ġmixed": 7815, "step": 7816, "Ġputs": 7817, "super": 7818, "lyph": 7819, "ĠColors": 7820, "Ġinnov": 7821, "Ġdeck": 7822, "apers": 7823, "](": 7824, "continue": 7825, "spec": 7826, "ĠRoad": 7827, "ASH": 7828, "iliar": 7829, "Ġcontinues": 7830, "Ġappoint": 7831, "ĠVir": 7832, "Ġbin": 7833, "}\",": 7834, "going": 7835, "each": 7836, "BD": 7837, "ĠAccess": 7838, "Doc": 7839, "ĠManagement": 7840, "asket": 7841, "Ġestablished": 7842, "socket": 7843, "ĠFont": 7844, "Ġneighbor": 7845, "lor": 7846, "Ġgather": 7847, "Ġidentity": 7848, "Ġfab": 7849, "padding": 7850, "ĠRoute": 7851, "Ã´": 7852, "Ġforced": 7853, "resents": 7854, "ĠHam": 7855, "Ġeventually": 7856, "acer": 7857, "pub": 7858, "Ġtra": 7859, "unique": 7860, "del": 7861, "ĠFlorida": 7862, "ĠClean": 7863, "xa": 7864, "ĠÂ·": 7865, "Ġvalidate": 7866, "Visual": 7867, "Expression": 7868, "member": 7869, "vin": 7870, "owl": 7871, "ifies": 7872, "ĠContext": 7873, "Ġofficers": 7874, "/n": 7875, "sn": 7876, "amage": 7877, "Ġaccounts": 7878, "ookie": 7879, "Section": 7880, "icians": 7881, "Ġadvis": 7882, "[:,": 7883, "ĠFrance": 7884, "Func": 7885, "icious": 7886, "Ġtok": 7887, "Channel": 7888, "ĠAD": 7889, "Ġtimeout": 7890, "reme": 7891, "uj": 7892, "uclear": 7893, "(\"<": 7894, "Ġbal": 7895, "Ġguid": 7896, "-align": 7897, "ĠWrite": 7898, "ĠOnce": 7899, "Ġpitch": 7900, "CF": 7901, "bytes": 7902, "ĠCommission": 7903, "PER": 7904, "ĠLos": 7905, "Ġassume": 7906, "Ġnom": 7907, "-term": 7908, "Ġremaining": 7909, "Ġpieces": 7910, "apy": 7911, "ĠLess": 7912, "range": 7913, "prise": 7914, "Impl": 7915, "Ġbusinesses": 7916, "Ġparties": 7917, "ĠContainer": 7918, "ĠPrivate": 7919, "ĠPlan": 7920, "Ġregistered": 7921, "Ġjour": 7922, "acker": 7923, "ÐµÐ½Ð¸": 7924, "/>": 7925, "chat": 7926, "sect": 7927, "Ġcreation": 7928, "olutely": 7929, "Ġinstant": 7930, "Ġdelivery": 7931, "icken": 7932, "yes": 7933, "ĠFranc": 7934, "bling": 7935, "enda": 7936, "[(": 7937, "ĠĠĠĠĠĠĠĠĠĠĠĠĠĠĠĠĠĠĠĠĠĠĠĠĠĠĠĠĠĠĠĠĠĠ": 7938, "Ġschedule": 7939, "Conn": 7940, "Ġthank": 7941, "xd": 7942, "Ġhook": 7943, "Ġdocumentation": 7944, "Hello": 7945, "Ġarticles": 7946, "Ġwest": 7947, "defined": 7948, "reset": 7949, "Ġmys": 7950, "ĠMA": 7951, "]),": 7952, "Ġcities": 7953, "related": 7954, "Ġappeared": 7955, "Ġwid": 7956, "ĠIns": 7957, "Ġdecre": 7958, "ĠLou": 7959, "ĠThank": 7960, "Ġmentioned": 7961, "ounce": 7962, "ĠTry": 7963, "ĠWall": 7964, "ĠMenu": 7965, "ĠEr": 7966, "Ġcritic": 7967, "ĠYear": 7968, "Ġflo": 7969, "NN": 7970, "ooter": 7971, "ĠAff": 7972, "rooms": 7973, "Ġhyp": 7974, "global": 7975, "Ġavec": 7976, "Ġcompletion": 7977, "Ġcond": 7978, "onymous": 7979, "Ġstars": 7980, "Ġrelevant": 7981, "Ġcovered": 7982, "Ġelim": 7983, "Ġtu": 7984, "Ġsecure": 7985, "Ġstored": 7986, "]/": 7987, "Ġmigr": 7988, "MI": 7989, "ĠDen": 7990, "Ġannual": 7991, "-and": 7992, "Ġcrime": 7993, "bel": 7994, "Ġkitchen": 7995, "ournament": 7996, "ĠSocial": 7997, "ĠSpecial": 7998, "Ġtail": 7999, "Ġunknown": 8000, "ded": 8001, "Ġapprec": 8002, "cf": 8003, "Ġassign": 8004, "-out": 8005, "ĠMont": 8006, "dp": 8007, "Ġstone": 8008, "Results": 8009, "azz": 8010, "Ġdaughter": 8011, "Ġcurr": 8012, "Ġlin": 8013, "Ġsouth": 8014, "forms": 8015, "lette": 8016, "aks": 8017, "igure": 8018, "ĠEU": 8019, "variable": 8020, "Ġbrief": 8021, "ĠScott": 8022, "Ġconference": 8023, "anda": 8024, "oral": 8025, "Ġeine": 8026, "////////////////////////////////////////////////////////////////": 8027, "esso": 8028, "Ġris": 8029, "Ġgender": 8030, "estic": 8031, "License": 8032, "(out": 8033, "Ġms": 8034, "See": 8035, "Ġwilling": 8036, "aze": 8037, "Ġsports": 8038, "lu": 8039, "Ġpurs": 8040, "-pro": 8041, "Ġdriving": 8042, "ĠÄ": 8043, "Ġpropos": 8044, "ultip": 8045, "uplic": 8046, "Ġapprox": 8047, "Ġwear": 8048, "asset": 8049, "Ġice": 8050, "kr": 8051, "ĠGermany": 8052, "ĠGeorge": 8053, "Move": 8054, "Ġpoly": 8055, "voice": 8056, "}\"": 8057, "Ġanimal": 8058, "Av": 8059, "Ġnative": 8060, "][\"": 8061, "Ġmais": 8062, "Ġprepar": 8063, "Ġinterval": 8064, "plementation": 8065, "Ġbug": 8066, ">\"": 8067, "stat": 8068, "Ġfaith": 8069, "Ġrom": 8070, "prev": 8071, "ĠElect": 8072, "Find": 8073, "Ġgod": 8074, "otor": 8075, "//----------------------------------------------------------------": 8076, "original": 8077, "ĠSenate": 8078, "Ġpositions": 8079, "Ġweapons": 8080, "Ġcoff": 8081, "Ġpurposes": 8082, "pol": 8083, "Ġimpress": 8084, "Ġanimals": 8085, "Ġmurder": 8086, "flag": 8087, "Ġsolutions": 8088, "ĠActive": 8089, "Ġbright": 8090, "Ġsitu": 8091, "ï¼Ī": 8092, "Ġsie": 8093, "akt": 8094, "Space": 8095, "han": 8096, "azine": 8097, "ĠZe": 8098, "Ġcrash": 8099, "(/": 8100, ">=": 8101, "Ð±": 8102, "iva": 8103, "ĠLat": 8104, "Ġreverse": 8105, "'][": 8106, "Ġprompt": 8107, "onto": 8108, "ĠJournal": 8109, ")\"": 8110, "lets": 8111, "phan": 8112, "Will": 8113, "Ġafford": 8114, "Ġskill": 8115, "NC": 8116, "Bind": 8117, "TS": 8118, "Just": 8119, "iteral": 8120, "YP": 8121, "Ġwind": 8122, "Ġwarning": 8123, "ĠWater": 8124, "Ġdraft": 8125, "Ġcm": 8126, "Ġsam": 8127, "Ġholding": 8128, "zip": 8129, "ĠScience": 8130, "Ġsupposed": 8131, "Gen": 8132, "Ġdiet": 8133, "ĠPass": 8134, "vi": 8135, "Ġhusband": 8136, "note": 8137, "ĠAbout": 8138, "ĠInstitute": 8139, "Ġclimate": 8140, "Ġnut": 8141, "ested": 8142, "Ġapparent": 8143, "Ġholds": 8144, "fi": 8145, "news": 8146, "CM": 8147, "video": 8148, "':'": 8149, "ping": 8150, "Ġsenior": 8151, "wa": 8152, "ĠDatabase": 8153, "rep": 8154, "ESS": 8155, "nergy": 8156, "Ġrise": 8157, "Ġkernel": 8158, "::$": 8159, "Ġoffering": 8160, "decl": 8161, "ĠCS": 8162, "Ġlisted": 8163, "Ġmostly": 8164, "enger": 8165, "Ġblocks": 8166, "olo": 8167, "Ġgoverning": 8168, "Ġconcent": 8169, "Ġoccurred": 8170, "Ġchanging": 8171, "Scene": 8172, "Beh": 8173, "\"The": 8174, "Ġtile": 8175, "ĠAssociation": 8176, "alty": 8177, "odies": 8178, "iated": 8179, "Ġprepared": 8180, "possible": 8181, "Ġmort": 8182, "Ġignore": 8183, "Ġcalc": 8184, "Ġcanvas": 8185, "Ġdut": 8186, "Ġaux": 8187, "Sup": 8188, "Ġartist": 8189, "Vec": 8190, "etween": 8191, "ĠCategory": 8192, "ĠJul": 8193, "Ġring": 8194, ".ed": 8195, "Let": 8196, "Ġflat": 8197, "adian": 8198, "ele": 8199, "standing": 8200, "Ġlab": 8201, "ucky": 8202, "ĠChristmas": 8203, "Ġslightly": 8204, "erge": 8205, "ĠPolice": 8206, "ĠRight": 8207, "Ġaward": 8208, "ĠOS": 8209, "oves": 8210, "icated": 8211, "Ġmanage": 8212, "oliday": 8213, "Nav": 8214, "wrap": 8215, "BB": 8216, "Ġwatching": 8217, "arios": 8218, "Ġoptional": 8219, "ĠAP": 8220, "ĠRev": 8221, "umin": 8222, "etailed": 8223, "ĠHy": 8224, "Ġblank": 8225, "agger": 8226, "ĠSelf": 8227, "()[": 8228, "earn": 8229, "channel": 8230, "blem": 8231, "icing": 8232, "ez": 8233, "Ġtheory": 8234, "ĠTer": 8235, "logo": 8236, "ĠHTTP": 8237, "()))": 8238, "World": 8239, "Ġpython": 8240, "Ġlif": 8241, "Ġtrav": 8242, "Ġconven": 8243, "company": 8244, "ĠClub": 8245, "Ver": 8246, "Ġzone": 8247, "products": 8248, "ĠEduc": 8249, "ĠMil": 8250, "ono": 8251, "Ġpacket": 8252, "Ġcer": 8253, "Ġenumer": 8254, "Ġpars": 8255, "formed": 8256, "Ġoccup": 8257, "tre": 8258, "Ġexercise": 8259, "Day": 8260, "Ġasking": 8261, "aption": 8262, "Ġorders": 8263, "Ġspending": 8264, "ĠUtil": 8265, "\\'": 8266, "?)": 8267, "Ġemot": 8268, "Ġinfluence": 8269, "ĠAfrica": 8270, "atters": 8271, "Ġchief": 8272, "ĉĉĉĉĉĉĉĉĉĉĉ": 8273, "Ġtom": 8274, "cluded": 8275, "serial": 8276, "aped": 8277, "Ġpolicies": 8278, "-ex": 8279, "-tr": 8280, "blank": 8281, "merce": 8282, "Ġcoverage": 8283, "Ġcharges": 8284, "ĠBoston": 8285, "Pe": 8286, "Ġcircum": 8287, "Ġfilled": 8288, "Ġnorth": 8289, "Ġtermin": 8290, "Ġ[âĢ¦": 8291, "Ġber": 8292, "retch": 8293, "ĠGovernment": 8294, "ĠLord": 8295, "asi": 8296, "Exec": 8297, "vertis": 8298, "Ġdiscussion": 8299, "enance": 8300, "Ġserved": 8301, "ĠPut": 8302, "Ġsweet": 8303, "Before": 8304, "ategy": 8305, "ĠMaterial": 8306, "Sort": 8307, "igital": 8308, "Why": 8309, "Ġsust": 8310, "abet": 8311, "Ġsegment": 8312, "ĠMuslim": 8313, "cut": 8314, "ĠMary": 8315, "Ġloved": 8316, "Ġlie": 8317, "month": 8318, "Ġprime": 8319, "ti": 8320, "ĠCarol": 8321, "Use": 8322, "ĠPop": 8323, "ĠSave": 8324, "execute": 8325, "dy": 8326, "ĠIran": 8327, "Ġphase": 8328, "week": 8329, "Ġhide": 8330, "Ġtil": 8331, "Ġju": 8332, "Custom": 8333, "burg": 8334, "/M": 8335, "Ġquant": 8336, "Ġrub": 8337, "ixels": 8338, "Ġinstalled": 8339, "Ġproperly": 8340, "Ġdecide": 8341, "apply": 8342, "Has": 8343, "Ġkeeping": 8344, "Ġcitizens": 8345, "Ġjoint": 8346, "pool": 8347, "Ġweapon": 8348, "gnore": 8349, "ĠExec": 8350, "otten": 8351, "ĠMS": 8352, "Ġ(-": 8353, "ĠReview": 8354, "Ġexamples": 8355, "Ġtight": 8356, "!(": 8357, "DP": 8358, "Ġphotograph": 8359, "URI": 8360, "Ã©t": 8361, "low": 8362, "ĠGrand": 8363, "Ġmaintain": 8364, "ials": 8365, "ĠGets": 8366, "peg": 8367, "~~~~": 8368, "rastructure": 8369, "ĠPL": 8370, "uen": 8371, "obby": 8372, "Ġpic": 8373, "Ġseed": 8374, "Ġexperienced": 8375, "Ġodd": 8376, "Ġkick": 8377, "Ġprocedure": 8378, "avigator": 8379, "-on": 8380, "ĠAlthough": 8381, "accept": 8382, "Blue": 8383, "layer": 8384, "available": 8385, "Ġends": 8386, "bus": 8387, "Ġexplain": 8388, "ĠCommittee": 8389, "Ġnoted": 8390, "Dim": 8391, "ĠWeek": 8392, "ĠEdge": 8393, "Ġoperating": 8394, "Ġeste": 8395, "ipl": 8396, "agination": 8397, "Ġproceed": 8398, "Ġanimation": 8399, "ĠWatch": 8400, "iat": 8401, "Ġoppon": 8402, "/A": 8403, "Report": 8404, "Ġsounds": 8405, "Ġbund": 8406, "Ġkid": 8407, "Ġyang": 8408, "ÑĨ": 8409, "math": 8410, "redients": 8411, "Ġvent": 8412, "avigate": 8413, "Look": 8414, "Ġreligious": 8415, "Ġrand": 8416, "rio": 8417, "uan": 8418, "iciency": 8419, "ĠChange": 8420, "Ġrencontre": 8421, "ĠRet": 8422, "plan": 8423, "Ã©n": 8424, "uries": 8425, "train": 8426, "Definition": 8427, "============": 8428, "zz": 8429, "Animation": 8430, "ĠOK": 8431, "Ġacad": 8432, "Ġrefresh": 8433, "'=>$": 8434, "amento": 8435, "pid": 8436, "tc": 8437, "Ġtips": 8438, "Ġhomes": 8439, "Ġfuel": 8440, "âĸ": 8441, "ĠĠčĊ": 8442, "ĠRoom": 8443, "ĠMount": 8444, "ĠEv": 8445, "eah": 8446, "ãĢį": 8447, "uke": 8448, "Ġusage": 8449, "aria": 8450, "Ġtexture": 8451, "Ġconversation": 8452, "eper": 8453, "Bean": 8454, "done": 8455, "ĠSecond": 8456, "Ġshooting": 8457, "_pre": 8458, "Components": 8459, "__,": 8460, "stitution": 8461, "Ġpresented": 8462, "Ġwa": 8463, "oker": 8464, "iner": 8465, "Ġbecoming": 8466, "Ġincident": 8467, "Att": 8468, "Ġrevealed": 8469, "forc": 8470, "Ġboot": 8471, "_->": 8472, "Photo": 8473, "Ġspring": 8474, ".\",": 8475, "ĠDictionary": 8476, "Ġlocations": 8477, "Ġsamples": 8478, "ĠBrown": 8479, "quality": 8480, "Ñħ": 8481, "-dis": 8482, "Ġhelping": 8483, "Ġped": 8484, "ĠWho": 8485, "alian": 8486, "internal": 8487, ">().": 8488, "->{": 8489, "Ġmine": 8490, "Ġsector": 8491, "Ġgro": 8492, "Ġopportunities": 8493, "ĠÃ¼": 8494, "Ġalleged": 8495, "Ġdoubt": 8496, "Mouse": 8497, "About": 8498, "Ġchair": 8499, "Ġstopped": 8500, "loop": 8501, "entities": 8502, "ansion": 8503, "Ġmental": 8504, "ĠĠĠĠĠĠĠĠĠĠĠĠĠĠĠĠĠĠĠĠĠĠĠĠĠĠĠĠĠĠĠĠĠĠĠĠĠĠĠĠĠ": 8505, "FR": 8506, "Ġdefend": 8507, "care": 8508, "Ġideal": 8509, "urface": 8510, "Ġele": 8511, "ulator": 8512, "ĠRights": 8513, "anguages": 8514, "Ġfunds": 8515, "Ġadapt": 8516, "Ġdeploy": 8517, "Ġvalidation": 8518, "Ġconcerns": 8519, "uce": 8520, "ulture": 8521, "ila": 8522, "Ġcup": 8523, "Ġpure": 8524, "asm": 8525, "MO": 8526, "Ġstores": 8527, "Ġcommunication": 8528, "mem": 8529, "Ġidentify": 8530, "enerated": 8531, "ordered": 8532, "Ġ\"[": 8533, "Ġswe": 8534, "ĠAccording": 8535, "Ġprepare": 8536, "Ġrob": 8537, "Pool": 8538, "Ġsport": 8539, "rv": 8540, "Ġalternative": 8541, "([]": 8542, "ĠChicago": 8543, "ipher": 8544, "ische": 8545, "ĠDirector": 8546, "kl": 8547, "ĠWil": 8548, "keys": 8549, "Ġwelcome": 8550, "king": 8551, "ĠManager": 8552, "Ġcaught": 8553, "Score": 8554, "Ġsurvey": 8555, "hab": 8556, "Headers": 8557, "Ġdecor": 8558, "Ġturns": 8559, "Ġradius": 8560, "errupt": 8561, "Cor": 8562, "Ġmel": 8563, "Ġintr": 8564, "ĠAC": 8565, "amos": 8566, "MAX": 8567, "ĠJesus": 8568, "ĠĠĠĠĠĠĠĠĠĠĠĠĠĠĠĠĠĠĠĠĠĠĠĠĠĠĠĠĠĠĠĠĠĠĠĠ": 8569, "Ġts": 8570, "Ġlinked": 8571, "free": 8572, "Ġfaster": 8573, "ctr": 8574, "DT": 8575, "Ġcombination": 8576, "Ġintended": 8577, "-the": 8578, "-type": 8579, "ectors": 8580, "ami": 8581, "uting": 8582, "Ġuma": 8583, "XML": 8584, "Ap": 8585, "Ġran": 8586, "Ġsorted": 8587, "itory": 8588, "Ġpriority": 8589, "ĠGal": 8590, "ĠOld": 8591, "hot": 8592, "ĠCare": 8593, "loading": 8594, "Kind": 8595, ",,": 8596, "rase": 8597, "ĠRT": 8598, "Ġentered": 8599, "gers": 8600, "Ġich": 8601, "/app": 8602, "Ġbrother": 8603, "Memory": 8604, "prec": 8605, "Ġnavigation": 8606, "Detail": 8607, "Ġaudience": 8608, "Ġdur": 8609, "Ġcluster": 8610, "unched": 8611, "ĠTotal": 8612, "Ġstandards": 8613, "Ġperformed": 8614, "hand": 8615, "(\"@": 8616, "Ġphil": 8617, "ibr": 8618, "trim": 8619, "Ġdoctor": 8620, "ĠOp": 8621, "Sm": 8622, "Stop": 8623, "Comment": 8624, "Person": 8625, "rb": 8626, "ĠĠĠĠĠĠĠĠĠĠĠĠĠĠĠĠĠĠĠĠĊ": 8627, "ĠCentral": 8628, "raq": 8629, "Ġputting": 8630, "Ġmd": 8631, "ĠLove": 8632, "Program": 8633, "Border": 8634, "oor": 8635, "Ġallowing": 8636, "after": 8637, "Ġentries": 8638, "ĠMaybe": 8639, "]).": 8640, "ĠShort": 8641, ")\\": 8642, ".now": 8643, "friend": 8644, "Ġprefer": 8645, "osis": 8646, "Ġskip": 8647, "Ġcompetition": 8648, "lications": 8649, "Ġals": 8650, "lan": 8651, "ĠMusic": 8652, "asis": 8653, "Ġbind": 8654, "ĠIsland": 8655, "rum": 8656, "Ġseat": 8657, "Video": 8658, "Ġack": 8659, "reek": 8660, "={()": 8661, "Ġrating": 8662, "Ġrestaurant": 8663, "pping": 8664, "uality": 8665, "Ġleague": 8666, "Ġfocused": 8667, "apon": 8668, "Ġabsolute": 8669, "Ġtells": 8670, "Ang": 8671, "Ġcommunities": 8672, "oking": 8673, "Ġapart": 8674, "arity": 8675, "/$": 8676, "ĠEnc": 8677, "Cre": 8678, "Ġshock": 8679, "ĠArab": 8680, "/re": 8681, "Ġretrie": 8682, "isa": 8683, "ĠOrgan": 8684, "Ġí": 8685, "ĠBAS": 8686, "Ġpossibly": 8687, "ĠJapanese": 8688, "Ġcraft": 8689, "ĠPlace": 8690, "Ġtalent": 8691, "Ġfunding": 8692, "Ġconfirmed": 8693, "Ġcycle": 8694, "GE": 8695, "Ġhearing": 8696, "Ġplants": 8697, "Ġmouth": 8698, "pages": 8699, "oria": 8700, "Ġod": 8701, "ollapse": 8702, "door": 8703, "Ġbought": 8704, "Ġaddr": 8705, "dden": 8706, "Ġdecades": 8707, "Ġversions": 8708, "fire": 8709, "Ġmoves": 8710, "fb": 8711, "Ġcoffee": 8712, "ĠRow": 8713, "Ġschema": 8714, "Scope": 8715, "Ġfighting": 8716, "Ġretail": 8717, "Ġmodified": 8718, "TF": 8719, "nie": 8720, "stone": 8721, "ĠÑĤ": 8722, "Ġbond": 8723, "ĠDevelopment": 8724, "plet": 8725, "Ġidentified": 8726, "Ġcoding": 8727, "oked": 8728, "ĠMaster": 8729, "Ġresidents": 8730, "redit": 8731, "ĠPhoto": 8732, "=-": 8733, "unte": 8734, "ateur": 8735, "ĠSing": 8736, "Ġsheet": 8737, "orse": 8738, "Ġhers": 8739, "Ġdetermined": 8740, "Common": 8741, "Ġwed": 8742, "PH": 8743, "ĠAtl": 8744, "cred": 8745, "Ġmes": 8746, "Ġadvanced": 8747, "Go": 8748, "kill": 8749, "Ġpal": 8750, "Ġtruck": 8751, "Ġcombined": 8752, "ĠCorpor": 8753, "Ġjoined": 8754, "ĠJose": 8755, "ĠCup": 8756, "uns": 8757, "estival": 8758, "levision": 8759, "Ġbroken": 8760, "Ġmarriage": 8761, "ĠWestern": 8762, "Ġrepresents": 8763, "ĠTitle": 8764, "iento": 8765, "Ġsmooth": 8766, "Word": 8767, "Ġmerge": 8768, "igan": 8769, "ĠVol": 8770, "ĠÐ·": 8771, "Ġseeking": 8772, "Single": 8773, "Ġkom": 8774, "bound": 8775, ";\"": 8776, "Ġinjury": 8777, "(H": 8778, "Ġissued": 8779, "Ġpatch": 8780, "Ġleaves": 8781, "Ġadopt": 8782, "ãĢĲ": 8783, "Ġexecutive": 8784, "ĠByte": 8785, "Ġnu": 8786, "outing": 8787, "cluding": 8788, "-R": 8789, "Ġsubstant": 8790, "Ġtechnical": 8791, "Ġtwice": 8792, "ĠmÃ¡s": 8793, "Ġunivers": 8794, "yr": 8795, "Ġdrag": 8796, "ĠDC": 8797, "Ġsed": 8798, "Ġbot": 8799, "ĠPal": 8800, "ĠHall": 8801, "forcement": 8802, "Ġauch": 8803, "notation": 8804, "Ġresolution": 8805, "Ġbott": 8806, "(\"[": 8807, "ende": 8808, "(arr": 8809, "Free": 8810, "(@\"": 8811, "ĠDistrict": 8812, "PEC": 8813, ":-": 8814, "ĠJo": 8815, "ĠĠĠĠĠĊ": 8816, "ĠRiver": 8817, "Ġhelpful": 8818, "Ġmassive": 8819, "Ġmeasures": 8820, "ĠSpec": 8821, "ãĢĳ": 8822, "Ġworse": 8823, "Ġlay": 8824, "Ġmagic": 8825, "ĠTheir": 8826, "oul": 8827, "stroy": 8828, "ĠWhere": 8829, "Ġsudden": 8830, "Ġdefe": 8831, "Ġbinding": 8832, "Ġflight": 8833, "ĠWomen": 8834, "ĠPolicy": 8835, "Ġdrugs": 8836, "ishing": 8837, "('../": 8838, "ĠMel": 8839, "peat": 8840, "tor": 8841, "Ġproposed": 8842, "Ġstated": 8843, "Ġeast": 8844, "Ġwinning": 8845, "folio": 8846, "ĠPan": 8847, "ĠAnge": 8848, "Ġcopies": 8849, "LM": 8850, "Ġdictionary": 8851, "Seg": 8852, "elines": 8853, "ĠSend": 8854, "Ġiron": 8855, "ĠFort": 8856, "Ġdebate": 8857, "eq": 8858, "acher": 8859, "lf": 8860, "Ġlawy": 8861, "ÄŁ": 8862, "ĠMen": 8863, "Ġtrim": 8864, "Ġ!!": 8865, "Ġpad": 8866, "Ġfollows": 8867, "\"][\"": 8868, "requ": 8869, "ĠEp": 8870, "eto": 8871, "('\\": 8872, "Services": 8873, "pleted": 8874, "Ġwindows": 8875, "Ġplane": 8876, "ĠConnection": 8877, "uard": 8878, "}\\": 8879, "==\"": 8880, "andon": 8881, "ĠRoy": 8882, "west": 8883, "iginal": 8884, "emies": 8885, "itz": 8886, "ĠPeter": 8887, "Ġtough": 8888, "Ġreduced": 8889, "Ġcalculate": 8890, "Ġrapid": 8891, "customer": 8892, "Ġefficient": 8893, "Ġmedium": 8894, "Ġfell": 8895, "ĠCas": 8896, "Ġfeedback": 8897, "Speed": 8898, "aje": 8899, "Ġcategories": 8900, "Ġfee": 8901, "};": 8902, "reh": 8903, "Ġproof": 8904, "Desc": 8905, "Build": 8906, "Ġsides": 8907, "-%": 8908, "ĠĠĠĠĠĠĠĠĠĠĠĠĠĠĠĠĠĠĠĠĠĠĠĠĠĠĠĠĠĠĠĠĠĠĠĠĠĠ": 8909, ".match": 8910, "Ð»Ð¸": 8911, "Ġfeels": 8912, "Ġachieve": 8913, "Ġclim": 8914, "ĠCD": 8915, "Ġteacher": 8916, "bn": 8917, "isting": 8918, "Ġsock": 8919, "Ġplays": 8920, "Fore": 8921, "ĠIraq": 8922, "Ġappearance": 8923, "Mon": 8924, "ĠHuman": 8925, "iot": 8926, "ĠHistory": 8927, "Ġsac": 8928, "ĠCollection": 8929, "Ġrecommended": 8930, "Ġorganizations": 8931, "Ġdiscovered": 8932, "cohol": 8933, "adas": 8934, "ĠThomas": 8935, "May": 8936, "Ġconserv": 8937, "Ġdomin": 8938, "ĠFollow": 8939, "ĠSection": 8940, "ĠThanks": 8941, "Ġrecipe": 8942, "ĉĊĉĊ": 8943, "orno": 8944, "Ġru": 8945, ".\"\"": 8946, "à¦": 8947, "Ġinputs": 8948, "Ġfif": 8949, "Ġvision": 8950, "cy": 8951, "ĠSeries": 8952, ")(((": 8953, "Ġtrading": 8954, "Ġmarker": 8955, "Begin": 8956, "Ġtypically": 8957, "Ġcauses": 8958, "Ġdetect": 8959, "country": 8960, "appy": 8961, "('<": 8962, "\"=>": 8963, "ĠLE": 8964, "reader": 8965, "Ġadministr": 8966, "Ãµ": 8967, "Ġfashion": 8968, "izar": 8969, "Ġdisable": 8970, "Ġsuc": 8971, "ĠLive": 8972, "issue": 8973, "Ġmetadata": 8974, "flags": 8975, "ĠðŁ": 8976, "Ġcommitted": 8977, "Ġva": 8978, "Ġrough": 8979, "Ġhighlight": 8980, "VO": 8981, "Ġencoding": 8982, "-Z": 8983, "$(\"#": 8984, "Ġrain": 8985, "reatest": 8986, "Selection": 8987, "Ġcandidates": 8988, "Ġsav": 8989, "Ġdecisions": 8990, "Ġcollabor": 8991, "ridge": 8992, "feed": 8993, "ression": 8994, "Ġpersons": 8995, "VM": 8996, "ega": 8997, "According": 8998, "acked": 8999, "Ġdollars": 9000, "ĠCost": 9001, "Ġprostit": 9002, "Ġauthority": 9003, "Ġspokes": 9004, "ĠToday": 9005, "istant": 9006, "ĠHead": 9007, "âĢĿ.": 9008, "ertainment": 9009, "cean": 9010, "culate": 9011, "Ġven": 9012, "However": 9013, "Ġtokens": 9014, "Graph": 9015, "ĠJud": 9016, "ĠVirgin": 9017, "unning": 9018, "agers": 9019, "Ġdeveloping": 9020, "Ġinstructions": 9021, "Ġpromise": 9022, "Ġrequested": 9023, "/\"": 9024, "ĠIcon": 9025, "uilt": 9026, "-day": 9027, "Ġintelligence": 9028, "ĠHard": 9029, "Bool": 9030, "idential": 9031, "Ġselling": 9032, "CI": 9033, "tle": 9034, "bur": 9035, "RY": 9036, "Ġbigger": 9037, "Ġrat": 9038, "Ġfamous": 9039, "Ġexplained": 9040, "Ġnuclear": 9041, "-N": 9042, "Ġcrisis": 9043, "ĠEnter": 9044, "Ġanswers": 9045, "/${": 9046, "Ġsequ": 9047, "mask": 9048, "Ġstanding": 9049, "Ġplenty": 9050, "ĠCross": 9051, "dro": 9052, "ĠCast": 9053, "ĠChris": 9054, "icio": 9055, "ĠMike": 9056, "Len": 9057, "Ġcock": 9058, "Ġauthorities": 9059, "Resources": 9060, "-H": 9061, "puter": 9062, "since": 9063, "Ġfamiliar": 9064, "VC": 9065, "Ġment": 9066, "Ġfreedom": 9067, "Ġroutes": 9068, "ĠBuy": 9069, "Ġcommands": 9070, "/C": 9071, "-style": 9072, "Ġwitness": 9073, "Ġcle": 9074, "Ġunion": 9075, "efault": 9076, "aret": 9077, "Ġthoughts": 9078, "ingly": 9079, "Touch": 9080, "ĠÐ¼": 9081, "Ġreward": 9082, "/:": 9083, "Ġnie": 9084, "Changes": 9085, "Month": 9086, "ï¼Ł": 9087, "Ġexecution": 9088, "Ġbeach": 9089, "/'": 9090, "Ġabort": 9091, "ĠSingle": 9092, "ĠMa": 9093, "ĠPet": 9094, "%)": 9095, "rand": 9096, "Rule": 9097, "Ġhel": 9098, "Ġquiet": 9099, "Ġratio": 9100, "osoph": 9101, "Ġadvent": 9102, "cap": 9103, ";</": 9104, "ĠUSB": 9105, "ĠJohnson": 9106, ".K": 9107, "/common": 9108, "ĠPDF": 9109, "acts": 9110, "ĠQuery": 9111, "ĠGirl": 9112, "Ġprocesses": 9113, "imo": 9114, "Ġadds": 9115, "Ġentirely": 9116, "Ġwash": 9117, "/************************************************************************": 9118, "Ġanimated": 9119, "Ġprofit": 9120, "encing": 9121, "/S": 9122, "ĠSym": 9123, "Ġmanual": 9124, "Ġmotion": 9125, "Ġgratuit": 9126, "PG": 9127, "(:,": 9128, "Ġera": 9129, "Ġho": 9130, "ĠJim": 9131, "quir": 9132, "Ã¡n": 9133, "Ġexpensive": 9134, "Well": 9135, "ĠDemocratic": 9136, "ĠâĨĴ": 9137, "names": 9138, "ĠVi": 9139, "Ġisinstance": 9140, "\\\">": 9141, "ĠPS": 9142, "Ġdangerous": 9143, "OME": 9144, "Other": 9145, "Points": 9146, "heading": 9147, "Ġcurrency": 9148, "Ġpercentage": 9149, "Ġclassic": 9150, "ĠMO": 9151, "FE": 9152, "await": 9153, "ĠÃ¨": 9154, "Ġaccident": 9155, "Ġvariant": 9156, "Ġmyst": 9157, "ĠLand": 9158, "ĠBre": 9159, "Ġharm": 9160, "ĠAcc": 9161, "Ġcharged": 9162, "iones": 9163, "arry": 9164, "ĠLanguage": 9165, "Ġwalking": 9166, "ifer": 9167, "Ġleadership": 9168, "ynam": 9169, "ipt": 9170, "ĠHas": 9171, "ĠIts": 9172, "Ġlistener": 9173, "Ġexperiences": 9174, "Ġcreates": 9175, "RS": 9176, "cart": 9177, "black": 9178, "Ġchoices": 9179, "war": 9180, "Ġ'''": 9181, "Ġordered": 9182, "Ġevening": 9183, "Ġpil": 9184, "Ġtun": 9185, "ĠBad": 9186, "random": 9187, "Ġexplicit": 9188, "Ġarrived": 9189, "Ġfly": 9190, "Ġeconom": 9191, "Ġlists": 9192, "Ġarchitect": 9193, "ĠPay": 9194, "Ġds": 9195, "ĠSol": 9196, "Ġvehicles": 9197, "Hz": 9198, "-com": 9199, "Ġking": 9200, "ĠHelp": 9201, "Ġabuse": 9202, "Ġextr": 9203, "Ġchemical": 9204, "Ġorient": 9205, "Ġbreath": 9206, "ĠSpace": 9207, "wait": 9208, "igma": 9209, "Ġentr": 9210, "Ġsob": 9211, "Ġaffected": 9212, "ika": 9213, "Ġcoal": 9214, "Ġhundreds": 9215, "Ġpolitics": 9216, "subject": 9217, "Ġconsumer": 9218, "Ġrepeated": 9219, "Send": 9220, "Ġprotocol": 9221, "Ġleads": 9222, "useum": 9223, "Every": 9224, "Import": 9225, "Ġchallenges": 9226, "Ġnovel": 9227, "Ġdepart": 9228, "bits": 9229, "oting": 9230, "(\\": 9231, "Ġcreative": 9232, "Ġbuff": 9233, "Ġintroduced": 9234, "usic": 9235, "modules": 9236, "Are": 9237, "language": 9238, "Ġtod": 9239, "?></": 9240, "omething": 9241, "Ġhun": 9242, "aters": 9243, "Ġimplemented": 9244, "ĠCase": 9245, "Children": 9246, "Ġnotification": 9247, "tl": 9248, "Ġforg": 9249, "Ġpermit": 9250, "Ġtargets": 9251, "ĠIF": 9252, "Ġtip": 9253, "sex": 9254, "Ġsupports": 9255, "Ġfold": 9256, "photo": 9257, "$('#": 9258, "Ġsharing": 9259, "Ġgoods": 9260, "vs": 9261, "ĠDan": 9262, "Rate": 9263, "ĠMartin": 9264, "Ġmanner": 9265, "lie": 9266, ".The": 9267, "Internal": 9268, "Ġcontrols": 9269, "Mat": 9270, "Ġmand": 9271, "Ġextended": 9272, "Ok": 9273, "Ġembed": 9274, "Ġplanet": 9275, "ĠNon": 9276, "-ch": 9277, ")\",": 9278, "epar": 9279, "Ġbelieved": 9280, "ĠEnvironment": 9281, "ĠFriend": 9282, "-res": 9283, "Ġhandling": 9284, "nic": 9285, "-level": 9286, "scri": 9287, "BE": 9288, "ungen": 9289, "Ġalter": 9290, "Pop": 9291, "cam": 9292, "Ġshipping": 9293, "Ġbattery": 9294, "MC": 9295, "Ġimpl": 9296, "otation": 9297, "ĠLab": 9298, "ĠGames": 9299, "ray": 9300, "Extra": 9301, "Two": 9302, "ĠLes": 9303, "Â°": 9304, "Ġcharset": 9305, "Ġjourney": 9306, "eting": 9307, "âĶ": 9308, "Ġdin": 9309, "Ġperman": 9310, "Ġsolve": 9311, "Ġlaunched": 9312, "Ġnine": 9313, "Ġsending": 9314, "Ġtelling": 9315, "eric": 9316, "Ġgrab": 9317, ".u": 9318, "ĠLibrary": 9319, "Ġdebt": 9320, "Ġfrequency": 9321, "Ġnegot": 9322, "ĠAfrican": 9323, "Å¡": 9324, "Global": 9325, "Ġexperts": 9326, "Ġdepending": 9327, "gray": 9328, "Ġjudge": 9329, "Ġsentence": 9330, "losure": 9331, "Ac": 9332, "Ġtrace": 9333, "Edge": 9334, "Ġfriendly": 9335, "Ġconcerned": 9336, "blog": 9337, "Ġclaimed": 9338, "}'": 9339, "integer": 9340, "xi": 9341, "Ġaccepted": 9342, "ĠEducation": 9343, "ublished": 9344, "gon": 9345, "appoint": 9346, "outs": 9347, "Ġmining": 9348, "Ġsongs": 9349, "Ġherself": 9350, "Ġgranted": 9351, "Ġpassion": 9352, "ĠLake": 9353, "Ġloan": 9354, "uent": 9355, "chant": 9356, "Ġdetailed": 9357, "except": 9358, "ĠHE": 9359, "Related": 9360, "zt": 9361, "Ġspecifically": 9362, "Ġcarried": 9363, "ANS": 9364, "\\\":": 9365, "Ġcul": 9366, "]-": 9367, "FP": 9368, "Ġsitting": 9369, "ĠEqu": 9370, "Ġassault": 9371, "kins": 9372, "ancer": 9373, "ogen": 9374, "Ġvoters": 9375, "ĠProt": 9376, "ãĥ¼": 9377, "bsites": 9378, "oster": 9379, "Ġarms": 9380, "avity": 9381, "Ġvul": 9382, "Ġhousing": 9383, "Ġbear": 9384, "pired": 9385, "Ġmarkets": 9386, "ĠStudent": 9387, "Ġticket": 9388, "Ġmillions": 9389, ")=": 9390, "Ġrecover": 9391, "ĠForce": 9392, "ĠBoth": 9393, "Ġvictim": 9394, "ĠDisc": 9395, "report": 9396, "Ġfourth": 9397, "ĠAssembly": 9398, "Ġath": 9399, "Ġchannels": 9400, "ĠJustice": 9401, "choice": 9402, "exec": 9403, "emale": 9404, "Ġelem": 9405, "Ġresponsibility": 9406, "ĠTw": 9407, "Ġfo": 9408, "asts": 9409, "Ġtreated": 9410, "sen": 9411, "ĠVict": 9412, "sumer": 9413, "Ġast": 9414, ">{{": 9415, "ĠResource": 9416, "ĠStandard": 9417, "ĠPrem": 9418, "updated": 9419, "ivalent": 9420, "Ġassets": 9421, "Ġinterests": 9422, "Ġhardware": 9423, "ĠRom": 9424, "Ġ*,": 9425, "ĠTake": 9426, "ĠJun": 9427, "\\<^": 9428, "Ġliqu": 9429, "Ġworst": 9430, "ymbols": 9431, "ĉĉĉĠĠĠ": 9432, "Ġdrivers": 9433, "ĠDocument": 9434, "eno": 9435, "ĠTechnology": 9436, "Ġapproved": 9437, "umps": 9438, "Ġsnow": 9439, "formance": 9440, "uits": 9441, "Ġdifferences": 9442, "ĉĉĉčĊ": 9443, "ĠPs": 9444, "Ġtodo": 9445, "Ġsel": 9446, "urers": 9447, "invalid": 9448, "Ġresearchers": 9449, "ĠRO": 9450, "Ġpel": 9451, "Ġillegal": 9452, "dialog": 9453, "lg": 9454, "Ġhero": 9455, "final": 9456, "Ġpp": 9457, "Ġci": 9458, "Ġsuggested": 9459, "pdf": 9460, "aching": 9461, "ĠRo": 9462, "ĠProperties": 9463, "ĠSi": 9464, "Ġmu": 9465, "Ġlands": 9466, "ifiers": 9467, "Ġholder": 9468, "ĠSon": 9469, "Ġsympt": 9470, ")?": 9471, "Ġfort": 9472, "Ġcasino": 9473, "Ġforum": 9474, "prefix": 9475, "apture": 9476, "Tube": 9477, "ems": 9478, "imize": 9479, "Ġnue": 9480, "aus": 9481, "course": 9482, "()),": 9483, "Ġacknow": 9484, "ĠKorea": 9485, "pling": 9486, "Ġworker": 9487, "hal": 9488, "ĠRichard": 9489, "Elements": 9490, "ĉĉĉĠ": 9491, "star": 9492, "Ġrelationships": 9493, "Ġcheap": 9494, "ĠXML": 9495, ",&": 9496, "ĠLouis": 9497, "Ġride": 9498, "Ġchosen": 9499, "_[": 9500, "/(": 9501, "ĠJeff": 9502, "priv": 9503, "ĠCanadian": 9504, "Ġunable": 9505, "Ġnos": 9506, "high": 9507, "Ġlift": 9508, "fun": 9509, "(){": 9510, "elly": 9511, "Ġradi": 9512, "ĠAngeles": 9513, "ĠSpan": 9514, "itors": 9515, "Ġmigration": 9516, "AK": 9517, "Oh": 9518, "ĠGT": 9519, "Ġadvance": 9520, "ĠStyle": 9521, "ection": 9522, "Ñİ": 9523, "pio": 9524, "rog": 9525, "Ġshopping": 9526, "OU": 9527, "Ġsubstantial": 9528, "Ġpregn": 9529, "Ġpromote": 9530, "Ġsigns": 9531, "/.": 9532, "Ġletters": 9533, "Board": 9534, "\"\\": 9535, "ĠJones": 9536, "Ġja": 9537, "Ġaffili": 9538, "Ġwealth": 9539, "Ġsignificantly": 9540, "Ġec": 9541, "Ġxs": 9542, "actual": 9543, "anvas": 9544, "mac": 9545, "Ġtransl": 9546, "ĠĠĠĠĠĠĠĠĠĠĠĠĠĠĠĠĠĠĠĠĠĠĠĠĠĠĠĠĠĠĠĠĠĠĠĠĠĠĠĠĠĠĠĠĠĠĠĠĠĠĠĠĠĠĠĠĠĠĠ": 9547, "Ġoch": 9548, "agnostic": 9549, "ĠDuring": 9550, "Ġtill": 9551, "Ġsignature": 9552, "Ġbird": 9553, "ĠOl": 9554, "ĠIr": 9555, "HS": 9556, "Ġelev": 9557, "ĠNav": 9558, "Ġrelax": 9559, "Ġplate": 9560, "Ġgrade": 9561, "iences": 9562, "High": 9563, "disabled": 9564, "Ġnoise": 9565, "aux": 9566, "ĠUP": 9567, "osa": 9568, "Ġvoc": 9569, "ocom": 9570, "Lock": 9571, "Ġvisited": 9572, "ĠâĪ": 9573, "Ġsucceed": 9574, "Ġimpossible": 9575, "aire": 9576, "ĠTurn": 9577, "Ġdish": 9578, "FG": 9579, "Ġsensor": 9580, "aba": 9581, "Ġsurg": 9582, "-J": 9583, "-G": 9584, "ĠJob": 9585, "Ġauthors": 9586, "flex": 9587, "Ġsoc": 9588, "Ret": 9589, "Ġsalt": 9590, "ĠClear": 9591, "Ġrooms": 9592, "conv": 9593, "#{": 9594, "ĠArea": 9595, "hen": 9596, "Ġbegins": 9597, "-y": 9598, "Ġignored": 9599, "Ġbonus": 9600, "student": 9601, "ĠMember": 9602, "Ġrelatively": 9603, "ĠLow": 9604, "ĠProdu": 9605, "ateway": 9606, "posure": 9607, "Ġthick": 9608, "aniel": 9609, "Extension": 9610, "Il": 9611, "eed": 9612, "Ġconflict": 9613, "uv": 9614, "iser": 9615, "Ġwave": 9616, "Mar": 9617, "ĠCommunity": 9618, "iche": 9619, "ĠLee": 9620, "riends": 9621, "Ã¨re": 9622, "!!!": 9623, "anz": 9624, "ĠSK": 9625, "Ġdemocr": 9626, "razy": 9627, "aser": 9628, "alendar": 9629, "Warning": 9630, "argo": 9631, "Ġactor": 9632, "ĠInstead": 9633, "ĠUsing": 9634, "Self": 9635, "Ġspeaking": 9636, "ĠParis": 9637, "ĠFood": 9638, "ĠBi": 9639, "ĠIB": 9640, "Ġuniversity": 9641, "ĠHeader": 9642, "Copy": 9643, "etc": 9644, "rical": 9645, "books": 9646, "Ġalgorithm": 9647, "Ġnumerous": 9648, "Share": 9649, "Have": 9650, "Ġrecru": 9651, "Ġprove": 9652, "health": 9653, "ÐµÐ»": 9654, "Ġdecimal": 9655, "Ġcommission": 9656, "scription": 9657, "Ġsummary": 9658, "atted": 9659, "Ġcloser": 9660, "finished": 9661, "ĠWood": 9662, "ku": 9663, "Flag": 9664, "Ġconfidence": 9665, "ĠFederal": 9666, "Ġcompat": 9667, "Ġvertical": 9668, "Ð¹": 9669, "Ã¨s": 9670, "IDE": 9671, ":\",": 9672, "ĠWay": 9673, "ÑĪ": 9674, "Temp": 9675, "ritten": 9676, "ĠAV": 9677, "ĠCEO": 9678, "ĠGuid": 9679, "Ġenvironmental": 9680, "Ġcorresponding": 9681, "Ġjustice": 9682, "Ġlived": 9683, "gar": 9684, "ĠGraph": 9685, "ĠStat": 9686, "ĠiPhone": 9687, "ĠHD": 9688, "Ġoccur": 9689, "Meta": 9690, "Å¾": 9691, "Ġcum": 9692, "Ã«": 9693, "Ġobtained": 9694, "Ġcomplaint": 9695, "Ġeating": 9696, "Ġtar": 9697, "Pass": 9698, "Ġplastic": 9699, "tility": 9700, "ĠWin": 9701, "pile": 9702, "ĠGar": 9703, "Ġquantity": 9704, "Ġgreatest": 9705, "Dao": 9706, "ĠHP": 9707, "riting": 9708, "blue": 9709, "domain": 9710, "Ġscores": 9711, "Normal": 9712, "Then": 9713, "***": 9714, "dist": 9715, "lon": 9716, "Ġhate": 9717, "shal": 9718, "database": 9719, "Ġpand": 9720, "Ġlogic": 9721, "bg": 9722, "Ġnur": 9723, "OG": 9724, "Ġmarried": 9725, ":+": 9726, "Ġdropped": 9727, "Ġregistration": 9728, "ultiple": 9729, "izers": 9730, "shape": 9731, "Ġwearing": 9732, "ĠCath": 9733, "Ġdedicated": 9734, "Ġadvoc": 9735, "ĠFamily": 9736, "Ġstatements": 9737, "ematic": 9738, "ampionship": 9739, "Ġmotiv": 9740, "ĠHave": 9741, "Ġblow": 9742, "Job": 9743, "cert": 9744, "install": 9745, "embed": 9746, "ĠSpring": 9747, "Ġexhib": 9748, "ĠComment": 9749, "ĠOptional": 9750, "ĠDark": 9751, "ĠShould": 9752, "Ġcentre": 9753, "ĠGuard": 9754, "Ã³w": 9755, "Ġtrouble": 9756, "_service": 9757, "uling": 9758, "ĠMexico": 9759, "ĠNY": 9760, "Ġlic": 9761, "Mr": 9762, "-fl": 9763, "idi": 9764, "rible": 9765, "ĠÐ¿ÑĢ": 9766, "Ġsizes": 9767, "ĠJon": 9768, "Ġfragment": 9769, "Ġspoke": 9770, "Ġwaste": 9771, "Join": 9772, "Ġillustr": 9773, "eli": 9774, "cient": 9775, "Ġaid": 9776, "Ġprosec": 9777, "Ġpassing": 9778, "Ġfaces": 9779, "iti": 9780, "Ġalle": 9781, "Ġrobot": 9782, "ĠĠĠĠĠĠĠĊ": 9783, "ĠSpe": 9784, "Ġreceiving": 9785, "ĠDetails": 9786, "mg": 9787, "Ġcomparison": 9788, "*,": 9789, "ĠFound": 9790, "/F": 9791, "Network": 9792, "ders": 9793, "Ġcapture": 9794, "Ġcorre": 9795, "ĠLtd": 9796, "ĠAdv": 9797, "[@": 9798, "Ġclip": 9799, "Mill": 9800, "ĠProfile": 9801, "Ġoblig": 9802, "describe": 9803, "riterion": 9804, "LD": 9805, "ered": 9806, "Ġfavour": 9807, "score": 9808, "attributes": 9809, "Ġchecks": 9810, "ĠPlus": 9811, "Ġscientific": 9812, "Head": 9813, "Ġfeat": 9814, "Ġdegrees": 9815, "ĠPale": 9816, ";\">": 9817, "Ġfilms": 9818, "ĠAudio": 9819, "ĠTag": 9820, "ĠEnergy": 9821, "itar": 9822, "Ġfellow": 9823, "ĠTri": 9824, "cloud": 9825, "ĠDemocrats": 9826, "ĠAcad": 9827, "Ġreb": 9828, "Ð½Ñĭ": 9829, "ĠBur": 9830, "Ġhex": 9831, "Console": 9832, "ctl": 9833, "ĠWilliam": 9834, "Ġaz": 9835, "Ġpractices": 9836, "Ġanywhere": 9837, "ĠPosition": 9838, "iams": 9839, "Ġoder": 9840, "ĠSecretary": 9841, "mond": 9842, "events": 9843, "?âĢĿ": 9844, "Ġattached": 9845, "Ġestate": 9846, "Ġfigures": 9847, "Ġsubscri": 9848, "nam": 9849, "noon": 9850, "liament": 9851, "Character": 9852, "Ġwinter": 9853, "ĠVariable": 9854, "Ġtrees": 9855, "(V": 9856, "Ġhier": 9857, "ĠEcon": 9858, "Ġvictims": 9859, "Rest": 9860, "iana": 9861, "Ġsad": 9862, "Ġble": 9863, "Prot": 9864, "Ġtelevision": 9865, "Ġlogo": 9866, "extension": 9867, "stein": 9868, "aciones": 9869, "Ġsimp": 9870, "Ġrecorded": 9871, "Ġbrings": 9872, "Ġprincipal": 9873, "Ġfees": 9874, "Ġutils": 9875, "Ġcorrectly": 9876, "fil": 9877, "Ġwel": 9878, "scale": 9879, "verify": 9880, "Ġ---": 9881, "Ġescape": 9882, "ikes": 9883, "ician": 9884, "Ġchapter": 9885, "Ġshadow": 9886, "WE": 9887, "Ġdistinct": 9888, "Ġbare": 9889, "-off": 9890, "Ġcolour": 9891, "olec": 9892, "aga": 9893, "Ġadj": 9894, "Short": 9895, "Ġtotally": 9896, "VD": 9897, "ĠTre": 9898, "vements": 9899, "ĠSolution": 9900, "Ġfundament": 9901, "Follow": 9902, "Ġfacility": 9903, "Ġhappening": 9904, "OF": 9905, "Span": 9906, "ĠÂ«": 9907, "iden": 9908, "Ġexceed": 9909, "Ġpri": 9910, "Ġconsequ": 9911, "nen": 9912, "ĠFuture": 9913, "Ġcarbon": 9914, "ĠSteel": 9915, "okie": 9916, "Ġspl": 9917, "Ġdeals": 9918, "Ġfixture": 9919, "ea": 9920, "Div": 9921, "Ġtested": 9922, "upported": 9923, "ĠCook": 9924, "Ġpaying": 9925, "ĠIll": 9926, "Ġarrested": 9927, "ĠPrime": 9928, "driver": 9929, "Once": 9930, "abb": 9931, "_bytes": 9932, "Ġshell": 9933, "alo": 9934, ");//": 9935, "(log": 9936, "ctors": 9937, ")</": 9938, "Ġneighborhood": 9939, "ailability": 9940, "vol": 9941, "Ġyouth": 9942, "Ġtechniques": 9943, "uh": 9944, "mente": 9945, "imm": 9946, "Ġcookie": 9947, "JS": 9948, "ovies": 9949, ":{": 9950, "Complete": 9951, "Since": 9952, "enable": 9953, "ĠDoes": 9954, "ĠWalk": 9955, "what": 9956, "kes": 9957, "Ġmultip": 9958, "iments": 9959, "eur": 9960, "Ġvictory": 9961, "ĠMos": 9962, "rovers": 9963, "Ġcompute": 9964, "Ġproviders": 9965, "ĠMedic": 9966, "LP": 9967, "Ġveter": 9968, "sters": 9969, "umeric": 9970, "ĉĉĉĉĉĊ": 9971, "Ġreplaced": 9972, "-free": 9973, "-container": 9974, "Ġmatching": 9975, "ĠEditor": 9976, "=${": 9977, "ĠSaf": 9978, "Ġsind": 9979, ".edu": 9980, "ĠNFL": 9981, "aya": 9982, "Ġdogs": 9983, "Ġdesire": 9984, "ĠMiddle": 9985, "Cart": 9986, "Theme": 9987, "Ġmob": 9988, "Ġdisplayed": 9989, "igit": 9990, "Ġadults": 9991, "\"\"\"": 9992, "Ġdelivered": 9993, "visible": 9994, "<<<": 9995, "ĠGO": 9996, "scroll": 9997, "Ġassigned": 9998, "ĠBool": 9999, "Ġcombat": 10000, "ĠHaw": 10001, ".-": 10002, "Ġsupporting": 10003, "ircraft": 10004, "Ġspin": 10005, "ĠCR": 10006, "à¥": 10007, "tpl": 10008, "Ġspaces": 10009, "?,": 10010, "ĠSyria": 10011, "Ġpatterns": 10012, "Ġframework": 10013, "/%": 10014, "Ġteaching": 10015, "Ġtables": 10016, "inations": 10017, "radio": 10018, "ĠPac": 10019, "ring": 10020, "Ġquote": 10021, "anna": 10022, "Ġwerden": 10023, "Ġcream": 10024, "Ġmachines": 10025, "-k": 10026, "Ġstim": 10027, "ĠStock": 10028, "rick": 10029, "Ġimportance": 10030, "rx": 10031, "Ġstroke": 10032, "agra": 10033, "Ġtaste": 10034, "Thanks": 10035, "ova": 10036, "Media": 10037, "posts": 10038, "Ġinterrupt": 10039, "python": 10040, "pair": 10041, "Ġcircle": 10042, "Ġiniti": 10043, "Ġcompreh": 10044, "learn": 10045, "Public": 10046, "Ġhumans": 10047, "Ġbringing": 10048, "ographic": 10049, "_layer": 10050, "-like": 10051, "Ġvotes": 10052, "Ġdesired": 10053, "Mask": 10054, "Ġrelation": 10055, "Ġinspir": 10056, "ometimes": 10057, "Ġrotation": 10058, "Ġmari": 10059, "Star": 10060, "phy": 10061, "Ġincreases": 10062, "aza": 10063, "ĠÃ¤": 10064, "ĠVan": 10065, "Ġlights": 10066, "ĠGuide": 10067, "Ġdates": 10068, "aman": 10069, "Ġpaths": 10070, "Ġreaction": 10071, "ĠBeach": 10072, "Environment": 10073, "interest": 10074, "Ġminister": 10075, "Ġreaders": 10076, "Ġdomestic": 10077, "Ġfiled": 10078, "City": 10079, "Ġmapping": 10080, "Ġrepair": 10081, "tics": 10082, "ixture": 10083, "Ġnombre": 10084, "zo": 10085, "ĠCarolina": 10086, "ĠDer": 10087, "Ġgest": 10088, "Ġhist": 10089, "resources": 10090, "ĠInvest": 10091, "ĠRoman": 10092, "Ġcultural": 10093, "feature": 10094, "pts": 10095, "bt": 10096, "Ġdot": 10097, "Ġdiam": 10098, "uspend": 10099, "Ġsurprise": 10100, "abil": 10101, "Ġvirt": 10102, "Ġbomb": 10103, "aron": 10104, "Ġvast": 10105, "Real": 10106, "epend": 10107, "icted": 10108, "Ġpicked": 10109, "ĠFL": 10110, "ĠRepublicans": 10111, "sup": 10112, "Microsoft": 10113, "services": 10114, "agic": 10115, "iveness": 10116, "Ġroles": 10117, "ras": 10118, "Ġindustrial": 10119, "Ġfacilities": 10120, "Ġni": 10121, "Ġba": 10122, "Ġimagine": 10123, "Ġexports": 10124, "Ġmad": 10125, "Ġfro": 10126, "hus": 10127, "Ġcommittee": 10128, "Ġdivision": 10129, "optional": 10130, "ĠPhys": 10131, "ingu": 10132, "Ġsync": 10133, "ĠNa": 10134, "}}</": 10135, "itÃ©": 10136, "owed": 10137, "Ġextent": 10138, "Ġhur": 10139, "VA": 10140, "clar": 10141, "Ġedges": 10142, "Ġindeed": 10143, "inherit": 10144, "ĠNight": 10145, "Ġreporting": 10146, "Ġencounter": 10147, "Ġkinds": 10148, "Ġconsidering": 10149, ".(": 10150, "Ġprotein": 10151, "Typ": 10152, "gricult": 10153, "ĠBall": 10154, "ĠEss": 10155, "ĠRub": 10156, "ulp": 10157, "ĠĠĠĠĠĠĠĠĠĠĠĠĠĠĠĠĠĠĠĠĠĠĠĠĠĠĠĠĠĠĠĠĠĠĠĠĠĠĠĠ": 10158, "itud": 10159, "iente": 10160, "Ġspell": 10161, "ĠJoe": 10162, "itan": 10163, "Ġmatters": 10164, "Ġemergency": 10165, "uated": 10166, "ĠChat": 10167, "={'": 10168, "contri": 10169, "arker": 10170, "iper": 10171, "Ġscheme": 10172, "Ġ*(": 10173, "ceiver": 10174, "Ġmarked": 10175, "Ġbodies": 10176, "Gap": 10177, "ĠPOST": 10178, "Ġcorporate": 10179, "Ġdimension": 10180, "Ġcontrast": 10181, "erview": 10182, "Ġcapable": 10183, "Ġadvertising": 10184, "urchase": 10185, "ĠPA": 10186, "ĠFrancisco": 10187, "Ġfacing": 10188, "ãĢĮ": 10189, "git": 10190, "Ġbeer": 10191, "Ġsky": 10192, "download": 10193, "ĠCur": 10194, "mc": 10195, "anny": 10196, "Ġcriteria": 10197, "Ġaspect": 10198, "Ġbundle": 10199, "Ġtank": 10200, "Ġbroadcast": 10201, "ownt": 10202, "Cap": 10203, "Ġalcohol": 10204, "ĠColl": 10205, "ĠAf": 10206, "Ġplanned": 10207, "pler": 10208, "ĠSite": 10209, "Ġresc": 10210, "oment": 10211, "ĠJavaScript": 10212, "eres": 10213, "(\",": 10214, "ifi": 10215, "Ġparking": 10216, "Ġisland": 10217, "Ġsister": 10218, "ĠAust": 10219, "dim": 10220, "Ġgap": 10221, "ĠPO": 10222, "Bag": 10223, "-scale": 10224, "rule": 10225, "Ġowned": 10226, "ĠMedical": 10227, "entries": 10228, "Ġsolar": 10229, "Ġresulting": 10230, "Ġestimated": 10231, "Ġimproved": 10232, "employee": 10233, "$.": 10234, "Like": 10235, ",(": 10236, "Ġpixel": 10237, "Ġrevenue": 10238, "ogram": 10239, "ĠLA": 10240, "ĠMachine": 10241, "Ġfle": 10242, "Ġbike": 10243, "Ġdisp": 10244, "Ġconsistent": 10245, "gender": 10246, "ĠThose": 10247, "perience": 10248, "Ġrush": 10249, "Ġneck": 10250, "CB": 10251, "Ġseq": 10252, "har": 10253, "Ġhits": 10254, "ĠâĤ¬": 10255, "Ġcontained": 10256, "rient": 10257, "water": 10258, "ĠVirginia": 10259, "ĠArm": 10260, "Ġ./": 10261, "Â»": 10262, "Ġassistance": 10263, "[],": 10264, "sync": 10265, "Ġveget": 10266, "escape": 10267, "icer": 10268, "boost": 10269, "-W": 10270, "*>": 10271, "Ġboys": 10272, "Ġwedding": 10273, "Ġagents": 10274, "=\"_": 10275, "ĠArmy": 10276, "Ġhint": 10277, "vision": 10278, "Ġtech": 10279, "ĠConnect": 10280, "Ġlegend": 10281, "ĠBet": 10282, "Subject": 10283, "Ġlit": 10284, "ĠFinal": 10285, "pearance": 10286, "Ġparticipants": 10287, "ĠPython": 10288, "Ġbusy": 10289, "iel": 10290, "ĠCorporation": 10291, "Ġextend": 10292, "Ġwebsites": 10293, "Ġpossibility": 10294, "Ð¾ÑĤ": 10295, "ĠkÃ¶": 10296, "Ġmeat": 10297, "Ġrepresentation": 10298, "Ġĉĉ": 10299, "ĠValley": 10300, "ĠSuccess": 10301, "Hi": 10302, "Ġnob": 10303, "geo": 10304, "Ġturning": 10305, "Ġfabric": 10306, "Ġperspective": 10307, "ĠSn": 10308, "Thank": 10309, "ĉĠĠĠĠĠĠĠĠĠĠĠ": 10310, "Ġfacts": 10311, "Ġunt": 10312, "################################################################": 10313, "-end": 10314, "ĠHen": 10315, "Ġuri": 10316, "ĠÐ½Ð°": 10317, "ĠInfo": 10318, "Ġconducted": 10319, "Ġwine": 10320, "John": 10321, "ĠAge": 10322, "ounded": 10323, "Ġrealize": 10324, "Ġsubsequ": 10325, "(User": 10326, "iano": 10327, "Ġaccompl": 10328, "isp": 10329, "ĠBed": 10330, "BR": 10331, "keep": 10332, "Ġisol": 10333, "amma": 10334, "Ġoccasion": 10335, "strip": 10336, "istribution": 10337, "aler": 10338, "Ġtid": 10339, "ĠCart": 10340, "Ġkilling": 10341, "ĠPHP": 10342, "fection": 10343, "Ġinstances": 10344, "\"/>": 10345, "Ġtaxes": 10346, "uable": 10347, "rank": 10348, "ignore": 10349, "track": 10350, "ÐºÐ°": 10351, "Ġshouldn": 10352, "ĠOP": 10353, "Ġkm": 10354, "oco": 10355, "Ġstatistics": 10356, "Ġbeauty": 10357, "Ġtog": 10358, "tip": 10359, "weak": 10360, "Äį": 10361, "Ġrepeat": 10362, "Ġapartment": 10363, "Ġemph": 10364, "Ġvit": 10365, "Even": 10366, "uten": 10367, "Ġcircumstances": 10368, "bian": 10369, "Ġsugar": 10370, "Windows": 10371, "ìŀ": 10372, "Ġobserved": 10373, "Ġcalendar": 10374, "Ġstrike": 10375, "orem": 10376, "power": 10377, "etect": 10378, "ĠSat": 10379, "Ġgang": 10380, "ĠSports": 10381, "ongs": 10382, "once": 10383, "Ġaccused": 10384, "Ġexplore": 10385, "Ġapproximately": 10386, "Ġlosing": 10387, "thesis": 10388, "ĠFund": 10389, "Ġdiagn": 10390, "properties": 10391, "cedure": 10392, "Ġgrant": 10393, "sock": 10394, "='$": 10395, "UND": 10396, "Ġglob": 10397, "Ġdire": 10398, "uffle": 10399, "Ġauthentic": 10400, ">(\"": 10401, "Ġdecade": 10402, "ĠImport": 10403, "Ġoriginally": 10404, "Ġindicate": 10405, "Sw": 10406, "enerate": 10407, "ĠHom": 10408, "ĠBritain": 10409, "ĠKar": 10410, "Ġmodal": 10411, "isi": 10412, "Ġsuggests": 10413, "Ġtur": 10414, "Ġconnections": 10415, "ĠBefore": 10416, "isted": 10417, "mouse": 10418, "Ġpulled": 10419, "Ġlegislation": 10420, "Ġforth": 10421, "pad": 10422, "ego": 10423, "Ġcompr": 10424, "Ġshares": 10425, "Ġrig": 10426, "green": 10427, "Ġenumerate": 10428, "Auto": 10429, "icator": 10430, "ĠRay": 10431, "asse": 10432, "Ġholiday": 10433, "gun": 10434, "Ġwrapper": 10435, "seq": 10436, "ĠYoung": 10437, "license": 10438, "serve": 10439, "^(": 10440, "iders": 10441, "'S": 10442, "pin": 10443, "Ġreasonable": 10444, "ampion": 10445, "ĠSociety": 10446, "Ġbei": 10447, "erves": 10448, "rad": 10449, "ĠFox": 10450, "Ġwheel": 10451, "')[": 10452, "Ġvary": 10453, "Ġproxy": 10454, "ĠAnother": 10455, "ĠPen": 10456, "Ġchecking": 10457, "manager": 10458, "Origin": 10459, "ugs": 10460, "oir": 10461, "><!--": 10462, "Ġexpressed": 10463, "Ġmoder": 10464, "Ġagencies": 10465, "Ġih": 10466, "iously": 10467, "ĠRod": 10468, "Ġsole": 10469, "Med": 10470, "bal": 10471, "Example": 10472, "ĠSale": 10473, "Ġstrip": 10474, "ĠComp": 10475, "Ġpresidential": 10476, "Most": 10477, "putation": 10478, "ĠFour": 10479, "Ġenforcement": 10480, "ĠGeorg": 10481, "weights": 10482, "/l": 10483, "Ġaggress": 10484, "Ġdrawing": 10485, "andy": 10486, "-j": 10487, "aka": 10488, "Ġteachers": 10489, "ĠMB": 10490, "Ġtemporary": 10491, "stra": 10492, "oup": 10493, "Ġtopics": 10494, "Ġportion": 10495, "idos": 10496, "ĠJewish": 10497, "Ġrecovery": 10498, "Ġstands": 10499, "#[": 10500, "Ġafternoon": 10501, "ĠArticle": 10502, "Ġexplan": 10503, "ĠPak": 10504, "Ġik": 10505, "+(": 10506, "lag": 10507, "Ġdisk": 10508, "Ġcontrovers": 10509, "\">&": 10510, "asp": 10511, "Ġwie": 10512, "ĠAustralian": 10513, "ĠYouTube": 10514, "Attr": 10515, "contains": 10516, "duce": 10517, "ĠMatt": 10518, "atern": 10519, "Ġvolunte": 10520, "Ġnewsp": 10521, "VP": 10522, "Ġdelegate": 10523, "Ġaccurate": 10524, "ĠExample": 10525, "%,": 10526, "ĠDaily": 10527, "Ġcabin": 10528, "ĠSW": 10529, "Ġlimits": 10530, "kip": 10531, "Ġarmy": 10532, "Ġending": 10533, "Ġboss": 10534, "ĠDialog": 10535, "Also": 10536, "=\"#\"": 10537, "ordan": 10538, "rowse": 10539, "-min": 10540, "Ġdevelopers": 10541, "Ġaccuracy": 10542, "Ġmaintenance": 10543, "Ġheav": 10544, "Ġnarr": 10545, "ĠEmp": 10546, "ĠMobile": 10547, "Material": 10548, "uma": 10549, "Ġconsumers": 10550, "shift": 10551, "Ġpued": 10552, "Ġmini": 10553, "collection": 10554, "Ġkan": 10555, "History": 10556, "Ġbench": 10557, "());": 10558, "itories": 10559, "Ġcrowd": 10560, "Ġpowers": 10561, "-E": 10562, "Ġdismiss": 10563, "Ġtalks": 10564, "ĠChannel": 10565, "forward": 10566, "iest": 10567, "************************": 10568, "Ġbeta": 10569, "ĠApi": 10570, "Ġeffectively": 10571, "sd": 10572, "ussy": 10573, "Dict": 10574, "ĠEffect": 10575, "ibilities": 10576, "Ġreturning": 10577, "ĠFar": 10578, "Ġmodules": 10579, "ilation": 10580, "Ġstorm": 10581, "onna": 10582, "Ġspons": 10583, "Ġdispl": 10584, "ĠĠĠĠĠĠĠĠĠĠĠĠĠĠĠĠĠĠĠĠĠĠĠĠĠĠĠĠĠĠĠĠĠĠĠĠĠĠĠĠĠĠĠĠĠ": 10585, "fall": 10586, "Ġhandles": 10587, "TL": 10588, "owa": 10589, "brand": 10590, "ĠTool": 10591, "Ġusual": 10592, "crement": 10593, "adium": 10594, "stock": 10595, "Ġserving": 10596, "ĠBon": 10597, "Ġlinear": 10598, "ĠTarget": 10599, "ĠRadio": 10600, "HL": 10601, "omatic": 10602, "agues": 10603, "inity": 10604, "diff": 10605, "quot": 10606, "Ġsymptoms": 10607, "[_": 10608, "ĠBul": 10609, "ĠFeb": 10610, "undo": 10611, "Ð¸Ñģ": 10612, "tras": 10613, "ĠPenn": 10614, "ĠSupreme": 10615, "}>": 10616, "ĠKim": 10617, "Ġga": 10618, "Ġartists": 10619, "Ġham": 10620, "oval": 10621, "Ġcha": 10622, "aten": 10623, "Fixed": 10624, "Ġvulner": 10625, "quantity": 10626, "Ġya": 10627, "Ġsoul": 10628, "transaction": 10629, "Ġsolo": 10630, "Ġpairs": 10631, "ĠGre": 10632, "ĠCC": 10633, "Ġgi": 10634, "zie": 10635, "Ġscheduled": 10636, "rotation": 10637, "gypt": 10638, "ulous": 10639, "::_": 10640, "ĠEll": 10641, "<!": 10642, "ĉĉĠĠ": 10643, "lp": 10644, "aha": 10645, "Copyright": 10646, "Ġdram": 10647, "Ġdiagram": 10648, "ĠMem": 10649, "Ġgarden": 10650, "Comp": 10651, "Ġattempts": 10652, "uffix": 10653, ">()": 10654, "Ġphilosoph": 10655, "anto": 10656, "ĠTele": 10657, "Ġaspects": 10658, "ìĹ": 10659, "Ġrail": 10660, "Ġwidely": 10661, "ashed": 10662, "iar": 10663, "inf": 10664, "upper": 10665, "issing": 10666, "Ġequivalent": 10667, "Ġty": 10668, "Ġpotentially": 10669, "ĠRecord": 10670, "resentation": 10671, "ounding": 10672, "Ġreligion": 10673, "Ġconsc": 10674, "ĠLim": 10675, "orted": 10676, "idades": 10677, "ĠLoc": 10678, "ori": 10679, "unicip": 10680, "Ġregions": 10681, "Ġbelieves": 10682, "posite": 10683, "{'": 10684, "prepare": 10685, "sample": 10686, "ĠWilliams": 10687, "ĠAndrew": 10688, "Ġlayers": 10689, "azy": 10690, "ĠKn": 10691, "Ġacid": 10692, "ĠAsia": 10693, "Ġexcess": 10694, "Ġkeyboard": 10695, "ensus": 10696, "Ġcrew": 10697, "Ġmissed": 10698, "master": 10699, "ĠWild": 10700, "Ġnewly": 10701, "Ġwinner": 10702, "icode": 10703, "Domain": 10704, "ĠSar": 10705, "Ġforest": 10706, "LED": 10707, "ĠWindow": 10708, "Ġresistance": 10709, "(\"-": 10710, "ĠRyan": 10711, "Ġpipe": 10712, "Ġcoast": 10713, "//!": 10714, "exit": 10715, "Ġultimately": 10716, "imitive": 10717, "ĠKeep": 10718, "Ġhistorical": 10719, "ĠJackson": 10720, "ocker": 10721, "ERN": 10722, "yntax": 10723, "isms": 10724, "Ġoccurs": 10725, "AE": 10726, "Ġtiny": 10727, "Ġproc": 10728, "Ġalive": 10729, "earing": 10730, "Ð½Ð¾": 10731, "Ġnoticed": 10732, "Ġedition": 10733, "Ġyards": 10734, "ĉĉĉĉĉĉĉĉĉĉĉĉ": 10735, "Ð»Ñı": 10736, "ĠMid": 10737, "Ã©es": 10738, "Ġglo": 10739, "Ġbuildings": 10740, "Ġze": 10741, "ĠIter": 10742, "Ġtube": 10743, "ĠPot": 10744, "bridge": 10745, "ĠScript": 10746, "ĠModule": 10747, "Ġvacc": 10748, "Ġinstallation": 10749, "vy": 10750, "ĠSM": 10751, "bat": 10752, "Ġfinds": 10753, "Ġatmos": 10754, "izard": 10755, "Ġreplacement": 10756, "licated": 10757, "apis": 10758, "Ġlogged": 10759, "ĠLeft": 10760, "Gui": 10761, "tm": 10762, "Pad": 10763, "Ġhousehold": 10764, "Ġrele": 10765, "Ġproposal": 10766, "::::": 10767, "Ġinfrastructure": 10768, "/html": 10769, "Ġads": 10770, "izza": 10771, "ctrine": 10772, "<html": 10773, "Ġattorney": 10774, "(',": 10775, "Ġcann": 10776, "oose": 10777, "Ġyellow": 10778, "payment": 10779, "away": 10780, "Ġopposition": 10781, "ĠAgain": 10782, "ĠHandle": 10783, "Ġexclusive": 10784, "inar": 10785, "Ã©r": 10786, "emporary": 10787, "Ġreact": 10788, "pipe": 10789, "cz": 10790, "Ġlargely": 10791, "Ġdiss": 10792, "axy": 10793, "esis": 10794, "ĠRen": 10795, "Ġcorn": 10796, "days": 10797, "Ġfruit": 10798, "Est": 10799, "ĠLuc": 10800, "ĠÃ¼ber": 10801, "parameters": 10802, "express": 10803, "Ġrevolution": 10804, "Ġuniform": 10805, "ĠPack": 10806, "lar": 10807, "Ġdepends": 10808, "confirm": 10809, "Ġtrib": 10810, "het": 10811, "ĠIde": 10812, "ansas": 10813, "Language": 10814, "uet": 10815, "ĠPo": 10816, "ĠSteve": 10817, "Ġcontest": 10818, "Ġapparently": 10819, "Ġfrequently": 10820, "Ġtradition": 10821, "ocolate": 10822, "SI": 10823, "ĠArgument": 10824, "erte": 10825, "ĠLayout": 10826, "Ġgenerator": 10827, "ĠWait": 10828, "Policy": 10829, "lights": 10830, "Py": 10831, "eda": 10832, "raid": 10833, "Ġancient": 10834, "Ġpump": 10835, "Ġdw": 10836, "Ġspecify": 10837, "ĠFBI": 10838, "Ġremark": 10839, "lymp": 10840, "antee": 10841, "ernet": 10842, "inent": 10843, "dm": 10844, "ĠMemory": 10845, "rich": 10846, "Ġkne": 10847, "Ġperm": 10848, "bad": 10849, "Ġdinner": 10850, "Feature": 10851, "Ġreferred": 10852, "Ġneither": 10853, "Ġcounty": 10854, "Ġtack": 10855, "Ġrenew": 10856, "``": 10857, "Ġbrown": 10858, "erto": 10859, "Ġsustain": 10860, "SO": 10861, "letes": 10862, "Ġenemies": 10863, "unge": 10864, "Ġexistence": 10865, "erra": 10866, "ĊĠĠĊ": 10867, "pay": 10868, "charge": 10869, "ĠIre": 10870, "atest": 10871, "Ġexplos": 10872, "Ġfired": 10873, "ĠTy": 10874, "icion": 10875, "Uri": 10876, "ĠColum": 10877, "ĠDevice": 10878, "-related": 10879, "Ġvor": 10880, "Ġupgrade": 10881, "Light": 10882, "Ġcodes": 10883, "Ġwrites": 10884, "food": 10885, "ĠÃ©t": 10886, "Ġtracks": 10887, "Ġseriously": 10888, "cht": 10889, "Ġimmediate": 10890, "Ġscientists": 10891, "Ġaccommod": 10892, "ĠHarry": 10893, "Ġsight": 10894, "ĠPalest": 10895, "ersistent": 10896, "ĠÑĥ": 10897, "Ġcoordinates": 10898, "Â·": 10899, "Welcome": 10900, "Ġgrew": 10901, "Ġbold": 10902, "ĠCPU": 10903, "Ġperfectly": 10904, "Ġmoments": 10905, "ĠMovie": 10906, "ystal": 10907, "ĠScreen": 10908, "Ġdisap": 10909, "Ġreduction": 10910, "Ġgeneric": 10911, "Ġdy": 10912, "aller": 10913, "Ġcurl": 10914, "ĠBody": 10915, "Ġbanks": 10916, "Ġevil": 10917, "Ġmanufacturer": 10918, "Ġreceiver": 10919, "Ġingredients": 10920, "ques": 10921, "Ġslowly": 10922, "ĠTown": 10923, "ĠCell": 10924, "(\"{": 10925, "Ã¤r": 10926, "ĠMD": 10927, "Ġcourses": 10928, "athan": 10929, "occ": 10930, "esign": 10931, "Addr": 10932, "=['": 10933, "(\"./": 10934, "]}": 10935, "ĠBorder": 10936, "oda": 10937, "Ġhall": 10938, "Ġrum": 10939, "Ġsaving": 10940, "Random": 10941, "Ġopposite": 10942, "Room": 10943, "Ð°Ð½Ð¸": 10944, "Ġenjoyed": 10945, "Clear": 10946, "âĢĺ": 10947, "ĠFord": 10948, "onic": 10949, "osten": 10950, "\"])": 10951, "Ġsufficient": 10952, "Ġphen": 10953, "Ġoh": 10954, "Ġroutine": 10955, "aylor": 10956, "Ġbasket": 10957, "Sim": 10958, "ĠShop": 10959, "Ġstudio": 10960, "atos": 10961, "Ã¤t": 10962, "oga": 10963, "Ġshr": 10964, "Ġsick": 10965, "Another": 10966, "Ġdoors": 10967, "razil": 10968, "Ġmaps": 10969, "translate": 10970, "Ġnearby": 10971, "Ġnach": 10972, "batch": 10973, "Ġlux": 10974, "ashes": 10975, "angers": 10976, "âĢ¦âĢ¦": 10977, "Ġacts": 10978, "inv": 10979, "ccion": 10980, "Ġretain": 10981, "utch": 10982, "ĠÐ±": 10983, "Ġknowing": 10984, "Ġrepresenting": 10985, "Ġtrick": 10986, "ĠEdition": 10987, "uplicate": 10988, "Ġcontrolled": 10989, "javascript": 10990, "Ġmilk": 10991, "White": 10992, "awa": 10993, "Ġdiscussed": 10994, "ĠBush": 10995, "tags": 10996, "Ġtact": 10997, "Ġsid": 10998, "$$": 10999, "});": 11000, "Ġregul": 11001, "Region": 11002, "fff": 11003, "Ġcro": 11004, "=\"+": 11005, "Student": 11006, "Ġdisappoint": 11007, "Counter": 11008, "Ġbutter": 11009, "ĠHa": 11010, "ĠDigital": 11011, "Ġbid": 11012, "\">{{": 11013, "ingers": 11014, "ĠCountry": 11015, "/k": 11016, "dating": 11017, ":#": 11018, "ynchron": 11019, "ollywood": 11020, "Ġvalor": 11021, "ipient": 11022, "oft": 11023, "Ġsynchron": 11024, "Ġformed": 11025, "ruption": 11026, "Ġlista": 11027, "Ġvillage": 11028, "Ġknock": 11029, "\"{": 11030, "Ġtransactions": 11031, "Ġhabit": 11032, "ĠJe": 11033, "eden": 11034, "Ġaircraft": 11035, "irk": 11036, "ĠAB": 11037, "Ġfairly": 11038, "Ġinstrument": 11039, "Ñī": 11040, "Ġot": 11041, "Ġcolle": 11042, "ĠMatch": 11043, "ijn": 11044, "zero": 11045, "Ġnetworks": 11046, ".gov": 11047, "Ġintel": 11048, "Ġsections": 11049, "outine": 11050, "ĠBlog": 11051, "Ġbridge": 11052, "ĠCV": 11053, "convert": 11054, "ĠBern": 11055, "eval": 11056, "tool": 11057, "Ġpayments": 11058, "Ġconcrete": 11059, "Ġelig": 11060, "Ġacceler": 11061, "Ġhole": 11062, "Ġgraphics": 11063, "Own": 11064, "onder": 11065, "Ġpackages": 11066, "/a": 11067, "ĠKnow": 11068, "Ġduty": 11069, "Wait": 11070, "Ð½Ð°": 11071, "Ġongoing": 11072, "Ġtan": 11073, "Ġinterpret": 11074, "asters": 11075, "Ġlegs": 11076, "-file": 11077, "ĠSaint": 11078, "//#": 11079, "Ġprohib": 11080, ":=": 11081, "Ġblo": 11082, "otic": 11083, "aping": 11084, "Ġease": 11085, "oli": 11086, "Ġextreme": 11087, "Ġprofessor": 11088, "Images": 11089, "Ġaddresses": 11090, "plemented": 11091, "Ġincorpor": 11092, "ĠDa": 11093, "nombre": 11094, "Ġdiscrim": 11095, "Ġcompens": 11096, "gregate": 11097, "ancell": 11098, "aches": 11099, "ĠCriteria": 11100, "Ġsecondary": 11101, "Watch": 11102, "ĠSem": 11103, "ĠMcC": 11104, "Ġacademic": 11105, "Upper": 11106, "::~": 11107, "utral": 11108, "ĠDog": 11109, "aded": 11110, "Ġderived": 11111, "ĠKen": 11112, "Ġtypical": 11113, "ĠBob": 11114, "ĠSeason": 11115, "ĠĠĠĠĠĠĠĠĠĠĠĠĠĠĠĠĠĠĠĠĠĠĠĠĠĠĠĠĠĠĠĠĠĠĠĠĠĠĠĠĠĠ": 11116, "ĠMir": 11117, "Ġemotional": 11118, ",v": 11119, "cn": 11120, "/st": 11121, "onom": 11122, "Ġdeclared": 11123, ">.": 11124, "ailing": 11125, "Ġnormally": 11126, "evin": 11127, "likely": 11128, "Ġpointed": 11129, "ĠStack": 11130, "Ġwalls": 11131, "mean": 11132, "adv": 11133, "Ġswap": 11134, "uls": 11135, "Ġemails": 11136, "ĠUkr": 11137, "asta": 11138, "ĠThus": 11139, "ĠStone": 11140, "Ġappeal": 11141, "Ġregulations": 11142, "ulf": 11143, "ĠDR": 11144, "Ġtechnologies": 11145, "Ġnecessarily": 11146, "resa": 11147, "Ġunderst": 11148, "Ġfinger": 11149, "pressed": 11150, "-by": 11151, "iffer": 11152, "watch": 11153, "ĠBa": 11154, "AIM": 11155, "Ġweights": 11156, "ĠRon": 11157, "')}}": 11158, "periment": 11159, "xic": 11160, "aurant": 11161, "Ġinstitutions": 11162, "Ġexposure": 11163, "pattern": 11164, "ĠLinux": 11165, "redient": 11166, "ĠChief": 11167, "\"},": 11168, "Ġelectronic": 11169, "rong": 11170, "erd": 11171, "rait": 11172, "/',": 11173, "ĠOhio": 11174, "Ġcontinuing": 11175, "ĠEth": 11176, "sz": 11177, "Env": 11178, "%.": 11179, "arters": 11180, ")((": 11181, "ĠÃ®": 11182, "perature": 11183, "progress": 11184, "Pres": 11185, "ê°": 11186, "implementation": 11187, "Ġbien": 11188, "Ġstreets": 11189, "News": 11190, "###": 11191, ":/": 11192, "Ġcutting": 11193, "ressed": 11194, "lab": 11195, "Ġcausing": 11196, "bra": 11197, "illy": 11198, "pletion": 11199, "will": 11200, "Ġstructures": 11201, "ĠImp": 11202, "Ġ----------------": 11203, "Ġplain": 11204, "Ġpeer": 11205, "gg": 11206, "oints": 11207, "Ġsomewhat": 11208, "Ġwet": 11209, "Ġemployment": 11210, "irms": 11211, "sis": 11212, "rig": 11213, "Ġconversion": 11214, "Ġges": 11215, "egr": 11216, "ĠCa": 11217, "ouston": 11218, "Black": 11219, "Ġmagazine": 11220, "AW": 11221, "osing": 11222, "Ġbroke": 11223, "ĠCru": 11224, "Ġdestroyed": 11225, "Ġapproval": 11226, "ĠIII": 11227, "Ġdesigns": 11228, "Ġconsent": 11229, "omp": 11230, "Ġcrypt": 11231, "?(": 11232, "orough": 11233, ".o": 11234, "erring": 11235, "Google": 11236, "Ġgear": 11237, "life": 11238, "Ġsuitable": 11239, "Ġmanifest": 11240, "atten": 11241, "Ġfrustr": 11242, "ovement": 11243, "Ġexpansion": 11244, "igs": 11245, "Rob": 11246, "ìł": 11247, "Ġtranslation": 11248, "ĠBeaut": 11249, "Best": 11250, "Ġliquid": 11251, "ITS": 11252, "Ġprod": 11253, "Ġoperate": 11254, "Ġnatur": 11255, "argument": 11256, "ĠCentre": 11257, "locale": 11258, "Chart": 11259, "ĠDivision": 11260, "Ġclinical": 11261, "Company": 11262, "Separ": 11263, "las": 11264, "ĠHun": 11265, "Ġheading": 11266, "bia": 11267, "Ġstretch": 11268, "icide": 11269, "Ġreprodu": 11270, "legend": 11271, "enders": 11272, "Ġresponses": 11273, "Ġont": 11274, "ritical": 11275, "Ġrefuge": 11276, "ĠLi": 11277, "ĠThree": 11278, "jax": 11279, "Ġâĸ": 11280, "Ġcovers": 11281, "-.": 11282, "Ġfails": 11283, "includes": 11284, "Ġfault": 11285, "Ġly": 11286, "Ã±o": 11287, "ĠPur": 11288, "ĠAsian": 11289, "Ġgiant": 11290, "ĠManual": 11291, "ĠCopy": 11292, "Health": 11293, "Ġtwe": 11294, "Ġcollected": 11295, "Ġfurniture": 11296, "Ġdealing": 11297, "Controls": 11298, "ĠHotel": 11299, "cks": 11300, "Ġchose": 11301, "âĶĢ": 11302, "odd": 11303, "SR": 11304, "ìĦ": 11305, "Ġaccord": 11306, "ĠMove": 11307, "ĠMode": 11308, "++++": 11309, "ĠDid": 11310, "']->": 11311, "ucc": 11312, "ĠWal": 11313, "erior": 11314, "Ġmainly": 11315, "Ġcounts": 11316, "eam": 11317, "Question": 11318, "ĠAli": 11319, "detail": 11320, "tail": 11321, "Ġmile": 11322, "ĠFair": 11323, "Ġsurrounding": 11324, "Ġadm": 11325, "Dev": 11326, "ĠSound": 11327, "ĠAsh": 11328, "FD": 11329, "Team": 11330, "ubble": 11331, "Ġasc": 11332, "Ġintention": 11333, "Acc": 11334, "chi": 11335, "usters": 11336, "Ġinspired": 11337, "seg": 11338, "CLU": 11339, "Ġmanip": 11340, "Connect": 11341, "ĠBeh": 11342, "Ġfindings": 11343, "Ġassembly": 11344, "world": 11345, "Ġremained": 11346, "(.": 11347, "ĊĊĊĊĊ": 11348, "who": 11349, "aki": 11350, "ĠBasic": 11351, "ĠYet": 11352, "ĠUsers": 11353, "ikip": 11354, "Ġheads": 11355, "ĠMichigan": 11356, "ĠToronto": 11357, "Ġrecording": 11358, "Ġsubmitted": 11359, "mediate": 11360, "Ġstood": 11361, "Ġrear": 11362, "velocity": 11363, "ĠĠĠĠĠĠĠĠĠĠĠĠĠĠĠĠĠĠĠĠĠĠĠĠĠĠĠĠĠĠĠĠĠĠĠĠĠĠĠĠĠĠĠĠĠĠĠĠĠĠĠĠĠĠĠĠĠĠĠĠĠĠĠĠĠĠĠĠĠĠĠĠĠĠĠ": 11364, "roles": 11365, "ĠTour": 11366, "endment": 11367, "amps": 11368, "ĠIreland": 11369, "mal": 11370, "Ġyounger": 11371, "Ġstruggle": 11372, "Ġcable": 11373, "('-": 11374, "anes": 11375, "ĠNeed": 11376, "Pol": 11377, "ĠPH": 11378, "agem": 11379, "ĠBas": 11380, "adr": 11381, "Ġengineering": 11382, "iten": 11383, ")&": 11384, "Ġuk": 11385, "ĠLittle": 11386, "Ġhang": 11387, "Ġcompetitive": 11388, "ãģĹ": 11389, "Ġtranslate": 11390, "ooks": 11391, "ĠRoll": 11392, "/sh": 11393, "some": 11394, "Ġdesigner": 11395, "Ġza": 11396, "ĠNever": 11397, "Ġboxes": 11398, "Ġgrown": 11399, "',['": 11400, "Ġopponent": 11401, "APP": 11402, "ĠActiv": 11403, "Ġguests": 11404, "Ġamounts": 11405, "Ġclone": 11406, "Ġbreaking": 11407, "Ġreliable": 11408, "ĠSky": 11409, "asting": 11410, "illion": 11411, "comments": 11412, "ulty": 11413, "ĠĊĊĊ": 11414, "Ġpurchased": 11415, "complete": 11416, "isodes": 11417, "Ġsituations": 11418, "ĠHor": 11419, "Ġentities": 11420, "ĠSans": 11421, "vince": 11422, "rompt": 11423, "ylv": 11424, "Ġbatt": 11425, "Audio": 11426, "Ġincreasingly": 11427, "Ġexplains": 11428, "theast": 11429, "Ġhal": 11430, "Ġtechnique": 11431, "Ġdrawn": 11432, "Ġfeatured": 11433, "atin": 11434, "phen": 11435, "achel": 11436, "!\\": 11437, "lower": 11438, "ĠGR": 11439, "Ġpag": 11440, "Ġtou": 11441, "Distance": 11442, "Ġhell": 11443, "sim": 11444, "elenium": 11445, "ĠFall": 11446, "ĠMu": 11447, "Ġcruc": 11448, "Ġsont": 11449, "Ġinterior": 11450, "ĠOlymp": 11451, "para": 11452, "Ġriver": 11453, "Ġwithdraw": 11454, "React": 11455, "-class": 11456, "before": 11457, "ĠWas": 11458, "ICT": 11459, "Ġformula": 11460, "Ġindicates": 11461, "ĠĠĠĠĊĊ": 11462, "itting": 11463, "ĠItalian": 11464, "Ġpid": 11465, "Ġwins": 11466, "ĠCloud": 11467, "chester": 11468, "Ġdenied": 11469, "Ġwird": 11470, "ĠStep": 11471, "Ġinvestors": 11472, "bold": 11473, "ouver": 11474, "orer": 11475, "Ġsurgery": 11476, "Ġstrategies": 11477, "Ġcouncil": 11478, "ĠâĢŀ": 11479, "Ġreform": 11480, "Framework": 11481, "Ġlisting": 11482, "Ġbis": 11483, "egas": 11484, "Ġsuddenly": 11485, "Ġao": 11486, "fas": 11487, "Ġtracking": 11488, "ĠBL": 11489, "Ġmature": 11490, "Ġsoldiers": 11491, "arnings": 11492, "Ġwalked": 11493, "-con": 11494, "bottom": 11495, "Ġsurprising": 11496, "Ġgene": 11497, "ĠMIT": 11498, "ĠEgypt": 11499, "details": 11500, "ĠConference": 11501, "Information": 11502, "ĠMail": 11503, "-down": 11504, "raries": 11505, "bro": 11506, "Ġsubjects": 11507, "orient": 11508, ":@": 11509, "EF": 11510, "Ġtoler": 11511, "engers": 11512, "Ġendpoint": 11513, "Ġstrange": 11514, "Ġcolon": 11515, "Ġpreferred": 11516, "dep": 11517, "ĠEV": 11518, "Ġwhe": 11519, "Ġpup": 11520, "Ġinstitution": 11521, "Ġexposed": 11522, "teen": 11523, "ĠFront": 11524, "TT": 11525, "\\/\\/": 11526, "program": 11527, "Ġencourage": 11528, ".`": 11529, "shire": 11530, "ĠIslam": 11531, "een": 11532, "NI": 11533, "'\"": 11534, "Ġliked": 11535, "ĠSystems": 11536, "Ġmanufacturing": 11537, "ĠInf": 11538, "ìļ": 11539, "Ġinches": 11540, "Ġà¤": 11541, "Ã¹": 11542, "ĠCharles": 11543, "BU": 11544, "ĠLabor": 11545, "unn": 11546, "Ġestim": 11547, "mobile": 11548, "ĠLearn": 11549, "âĦ": 11550, "Ġindices": 11551, "Ġtub": 11552, "ikipedia": 11553, "Cost": 11554, "ë¡": 11555, "gage": 11556, "uzzle": 11557, "emos": 11558, "Ġdass": 11559, "enna": 11560, "Ġshots": 11561, "Ġrestore": 11562, "/D": 11563, "],[": 11564, "alias": 11565, "lint": 11566, "Ġsilver": 11567, "Ġlegisl": 11568, "Ġhouses": 11569, "ĠWars": 11570, "Ġinjuries": 11571, "Ġconstantly": 11572, "ĠConf": 11573, "Ġrecognized": 11574, "Ġpractical": 11575, "BJ": 11576, "]);": 11577, "asty": 11578, "Ġslide": 11579, "Power": 11580, "indices": 11581, "Ġqualified": 11582, "Ġthrown": 11583, "hello": 11584, "ĠNick": 11585, "lah": 11586, "assembly": 11587, "ĠSmall": 11588, "olding": 11589, "Should": 11590, "ĠSilver": 11591, "ĠBoot": 11592, "ĠMur": 11593, "don": 11594, "ĠFA": 11595, "Ġassociation": 11596, "fox": 11597, "ĠDar": 11598, "ĠDead": 11599, "Ġterminal": 11600, "Ġefficiency": 11601, "Ġunw": 11602, "Ġnarrow": 11603, "imento": 11604, "ĠSea": 11605, "ĠJac": 11606, "asted": 11607, "ĠAdam": 11608, "Ġsearching": 11609, "Java": 11610, "ĠFormat": 11611, "Ġrealized": 11612, "ĠChildren": 11613, "Ġkil": 11614, "Ġscenario": 11615, "lix": 11616, "ĠQuest": 11617, "ilty": 11618, "âĤ¬": 11619, "Ġreferences": 11620, "ĠVert": 11621, "egative": 11622, "Ġwrap": 11623, "Buf": 11624, "ĠTrad": 11625, "ĠAud": 11626, "trace": 11627, "Ġtherapy": 11628, "ĠKingdom": 11629, "Bus": 11630, "haust": 11631, "ĠHospital": 11632, "Ġpharm": 11633, "-----": 11634, "ĠAG": 11635, "Ã©d": 11636, "atable": 11637, ")$": 11638, "Ġmonthly": 11639, "Ġdiagnostic": 11640, "Symbol": 11641, "Ġimmigration": 11642, "sr": 11643, "Ġclothes": 11644, "ĠUnt": 11645, "Ġactivation": 11646, "Ġinitially": 11647, "Ġcuts": 11648, "found": 11649, "ĠStory": 11650, "ÑĨÐ¸": 11651, "proto": 11652, "estr": 11653, "-page": 11654, "ahr": 11655, "Ġincorrect": 11656, "ĠJoseph": 11657, "ĠDaniel": 11658, "sheet": 11659, "Ġliv": 11660, "lined": 11661, "Ġra": 11662, "ëĬ": 11663, "mu": 11664, "Ġpermitted": 11665, "Ġregional": 11666, "Ġsobre": 11667, "ĠSuch": 11668, "Ġroof": 11669, "times": 11670, "Ġchest": 11671, "ĠTab": 11672, "Ġesta": 11673, "Ã¤n": 11674, "special": 11675, "Ġmeal": 11676, "Ġclosely": 11677, "etry": 11678, "-be": 11679, "adel": 11680, "ĠRam": 11681, "igest": 11682, "ĠSpanish": 11683, "Ġcommitment": 11684, "Ġwake": 11685, "*>(": 11686, "PHP": 11687, "_{": 11688, "cker": 11689, "Ġinher": 11690, "Ġexpr": 11691, "}{": 11692, "Ġvaluable": 11693, "Ġfunny": 11694, "Inv": 11695, "Ġstable": 11696, "Ġpill": 11697, "ĠCSS": 11698, "ĠSpeed": 11699, "ublisher": 11700, "Ġoffensive": 11701, "cest": 11702, "icas": 11703, "Ġspark": 11704, "ĠProte": 11705, "ĠTax": 11706, "Who": 11707, "Family": 11708, "-for": 11709, "Ġfasc": 11710, "\")).": 11711, "Ġbirthday": 11712, "veh": 11713, "elled": 11714, "Ġimports": 11715, "ĠIslamic": 11716, "TA": 11717, "ĠStan": 11718, "weather": 11719, "Ġsuspect": 11720, "eature": 11721, "ennes": 11722, "WM": 11723, "avid": 11724, "inos": 11725, "Good": 11726, "Ġmarch": 11727, "Ġpossess": 11728, "usuario": 11729, "Cons": 11730, "amber": 11731, "Ġhorse": 11732, "ĠTransform": 11733, "Ġfoo": 11734, "Ġdella": 11735, "extends": 11736, "amer": 11737, "Ġprocessed": 11738, "ĠHarr": 11739, "ĠAI": 11740, "Ġko": 11741, "(%": 11742, "Ġtap": 11743, "({'": 11744, "croll": 11745, "DOM": 11746, "Ġtea": 11747, "Ġrein": 11748, "Ġworldwide": 11749, "sha": 11750, "Ġbir": 11751, "=\"#\">": 11752, "Ġrepresented": 11753, "iller": 11754, "Ġdance": 11755, "Ġvisitors": 11756, "-bit": 11757, "ĠRog": 11758, "iph": 11759, "ĠLLC": 11760, "itled": 11761, "iami": 11762, "Coll": 11763, "Ġdar": 11764, "ĠĠĠĠĠĠĠĠĠĠĠĠĠĠĠĠĠĠĠĠĠĠĠĠĠĠĠĠĠĠĠĠĠĠĠĠĠĠĠĠĠĠĠĠĠĠĠĠĠĠĠĠĠĠĠĠĠĠĠĠĠĠĠ": 11765, "Ġlatter": 11766, "archy": 11767, "Ġbow": 11768, "Ġoutcome": 11769, "Ġrisks": 11770, "ĠTherefore": 11771, "Ġownership": 11772, "Ġparallel": 11773, "Ġpending": 11774, "geometry": 11775, "Ġrecognize": 11776, "ĠCP": 11777, "Ġimmigr": 11778, "ĠĠĠĠĉĉ": 11779, "connected": 11780, "vertical": 11781, "Ġconsumption": 11782, "unks": 11783, "Ġfoods": 11784, "Ġpipeline": 11785, "Ġcollections": 11786, "Ġearned": 11787, "ĠCert": 11788, "Ġpartnership": 11789, "ĠVery": 11790, "Ġtitles": 11791, "enerator": 11792, "Ġabandon": 11793, "kind": 11794, "Ġclosing": 11795, "lica": 11796, "Ġcampus": 11797, "setting": 11798, "ãģ¯": 11799, ":\\/\\/": 11800, "ede": 11801, "Ġboat": 11802, "Ġpermanent": 11803, "Ġcarrying": 11804, "Ġconservative": 11805, "important": 11806, "ĠImm": 11807, "Ġdimensions": 11808, "aland": 11809, "single": 11810, "----------": 11811, "ariant": 11812, "ternal": 11813, "ĠItaly": 11814, "='\"": 11815, ")==": 11816, "ceptor": 11817, "Ġsca": 11818, "Security": 11819, "Ġaqu": 11820, "Ġwhenever": 11821, "berry": 11822, "Ġacting": 11823, "anti": 11824, "pd": 11825, "Zone": 11826, "Today": 11827, "!.": 11828, "abis": 11829, "itable": 11830, "Ġgal": 11831, "]{": 11832, "izona": 11833, "NET": 11834, "Ġexem": 11835, "ĠKenn": 11836, "Ġevolution": 11837, "vars": 11838, "-only": 11839, "ĠColorado": 11840, "Ġwatched": 11841, "bour": 11842, "Ġsevere": 11843, "Ġprofessionals": 11844, "portion": 11845, "Ġguarante": 11846, "Ð³": 11847, "Ġpushed": 11848, "ĠGi": 11849, "ï½": 11850, "Ġtum": 11851, "ĠAz": 11852, "isse": 11853, "Ġappreciate": 11854, "Ġsurve": 11855, "ĠRole": 11856, "jet": 11857, "dam": 11858, "Ġplatforms": 11859, "tele": 11860, "ĠInternal": 11861, "+:": 11862, "General": 11863, "Ġlawyer": 11864, "quiv": 11865, "iso": 11866, "Ġaccum": 11867, "obe": 11868, "Ġmarks": 11869, "curr": 11870, "asa": 11871, "ĠĠĠĠĠĠĠĠĠĠĠĠĠĠĠĠĠĠĠĠĠĠĠĠĠĠĠĠĠĠĠĠĠĠĠĠĠĠĠĠĠĠĠĠ": 11872, "Ġthin": 11873, "arest": 11874, "ĠOs": 11875, "Ġvelocity": 11876, "=\"../../": 11877, "ĠPriv": 11878, "bow": 11879, "Ġguarantee": 11880, "Ġevaluate": 11881, "qa": 11882, "Ġlies": 11883, "Ġassessment": 11884, "raf": 11885, "ĠFoot": 11886, "Ġlowest": 11887, "DOCTYPE": 11888, "Ġlanguages": 11889, "extra": 11890, "-back": 11891, "Ġeinen": 11892, "ĠMust": 11893, "ĠestÃ¡": 11894, "ĠScot": 11895, "AI": 11896, "Ġbias": 11897, "ationship": 11898, "Constant": 11899, "Ġprogramming": 11900, "Ins": 11901, "antes": 11902, "Ġshirt": 11903, "inated": 11904, "Ġregardless": 11905, "ĠMagic": 11906, "ulating": 11907, "ĠSU": 11908, "Ġsimpl": 11909, "copyright": 11910, "Ġuniverse": 11911, "ĠErr": 11912, "Ġpresentation": 11913, "categories": 11914, "Ġattach": 11915, "Ġdiscipl": 11916, "Ġregularly": 11917, "Ġprimarily": 11918, "inks": 11919, "[[": 11920, "owntown": 11921, "=\"'": 11922, "Ġsans": 11923, "Ġsupporters": 11924, "sequence": 11925, "GO": 11926, "ĠSpr": 11927, "Ġcarefully": 11928, "destroy": 11929, "Ġtodos": 11930, "otted": 11931, "Ġdont": 11932, "audi": 11933, "gre": 11934, "ĠOil": 11935, "Ġprivile": 11936, "Ġinjured": 11937, "ĠFurther": 11938, "Ġalias": 11939, "Ġses": 11940, "creens": 11941, "Ġdirected": 11942, "odge": 11943, "marks": 11944, "ĠUnivers": 11945, "erts": 11946, "ĠEsc": 11947, "Ġutility": 11948, "Ġinject": 11949, "ĠDNA": 11950, "amar": 11951, "Ġeu": 11952, "Ġrestaurants": 11953, "uters": 11954, "tw": 11955, "istro": 11956, "Ġlegit": 11957, "pecific": 11958, "ĠCome": 11959, "Ġabsor": 11960, "Ġow": 11961, "Ġsuperv": 11962, "Ġrespectively": 11963, "ĠStand": 11964, "Conf": 11965, "ussian": 11966, "Ġarc": 11967, "ucks": 11968, "Ġrestr": 11969, "Ġseasons": 11970, "ĠChapter": 11971, "ĠSwitch": 11972, "pic": 11973, "Ġhi": 11974, "loaded": 11975, "Ġfluid": 11976, "BN": 11977, "asant": 11978, "ryption": 11979, "Ġtaught": 11980, "agment": 11981, "Ġmul": 11982, "ĠBrook": 11983, "Ġsoci": 11984, "ĠIntel": 11985, "Ġaccessible": 11986, "rames": 11987, "leton": 11988, "ĠSquare": 11989, "avorite": 11990, "ĠBreak": 11991, "++]": 11992, "Ġtensor": 11993, "/http": 11994, "Ġfunctional": 11995, "whel": 11996, "Ġtent": 11997, "ĠCharacter": 11998, "Ġsees": 11999, "Big": 12000, "Ġextern": 12001, ")))),": 12002, "ĠJr": 12003, ".;": 12004, "nl": 12005, "van": 12006, "Ġfeelings": 12007, "Ġlean": 12008, "Ġhoping": 12009, "TV": 12010, "=\"<?=": 12011, "Ġcurve": 12012, "dst": 12013, "Ġmoral": 12014, "emes": 12015, "ogy": 12016, "Ġurban": 12017, "Ġaside": 12018, "Ġediting": 12019, "Second": 12020, "Track": 12021, "Ġvoting": 12022, "Ġhonor": 12023, ".',": 12024, "ellen": 12025, "Chat": 12026, "Ġimprovement": 12027, "ĠĠĠĠĠĠĠĠĠĊ": 12028, "Ġfalling": 12029, "ĠPa": 12030, "Ġforever": 12031, "Bed": 12032, "ĠDu": 12033, "Ġresume": 12034, "Ġpapers": 12035, "ĠInit": 12036, "Ġsuffering": 12037, "âĢĭ": 12038, "()-": 12039, "Ġexecuted": 12040, "ĠHol": 12041, "ãĥ³": 12042, "SK": 12043, "ĠLock": 12044, "incipal": 12045, "Ġsessions": 12046, "uni": 12047, "Ġcoup": 12048, "appro": 12049, "ghan": 12050, "Ġslots": 12051, "Ġmedicine": 12052, "Ġglad": 12053, "atre": 12054, "merican": 12055, "agg": 12056, "Ġkann": 12057, "Ġbrands": 12058, "Ġske": 12059, "Ġdigit": 12060, "Ġbackup": 12061, "Ġpersonally": 12062, "Ġcry": 12063, "Ġgran": 12064, "ĠDrop": 12065, "platform": 12066, "inking": 12067, "ubs": 12068, "lessly": 12069, "Ġbat": 12070, "Ġmuscle": 12071, "Ġcertificate": 12072, "Ġharder": 12073, "Ġpixels": 12074, "Ġdeveloper": 12075, "ĠLas": 12076, "egan": 12077, ".<": 12078, "Ġexplode": 12079, "Ġparticipate": 12080, "thew": 12081, "ãģ®": 12082, "Ġsubstr": 12083, "ĠSmart": 12084, "Ġscala": 12085, "gent": 12086, "-bar": 12087, "essional": 12088, "'\\": 12089, "TK": 12090, "unist": 12091, "proof": 12092, "cial": 12093, "proc": 12094, "={\"": 12095, "=$(": 12096, "iscal": 12097, "Ġoutdoor": 12098, "semble": 12099, "Ġessentially": 12100, "/G": 12101, "[])": 12102, "%\"": 12103, "sten": 12104, "Ġdust": 12105, "ĉĊĊ": 12106, "Ġretire": 12107, "Ġfib": 12108, "Although": 12109, "Ġreads": 12110, "ycles": 12111, "ĠHel": 12112, "Ġfundamental": 12113, "Ġtow": 12114, "ĠAcademy": 12115, "Ġcomprehensive": 12116, "ĠMeta": 12117, "Ġacknowled": 12118, "]==": 12119, "ĠSales": 12120, "ĠWis": 12121, ".extend": 12122, "allenge": 12123, "Ġgaming": 12124, "quential": 12125, "develop": 12126, "isor": 12127, "-K": 12128, "requency": 12129, "ĠQuestion": 12130, "ĠJersey": 12131, "ĠSa": 12132, "inite": 12133, "Ġunus": 12134, "-white": 12135, "etary": 12136, "Ġinvolving": 12137, "best": 12138, "allas": 12139, "ented": 12140, "ĠĠĠĠĠĠĠĠĠĠĠĠĠĠĠĠĠĠĠĠĠĠĠĠĊ": 12141, "Ġrepo": 12142, "enabled": 12143, "Ġsha": 12144, "Ġmembership": 12145, "inating": 12146, "_custom": 12147, "Stat": 12148, "links": 12149, "ĠHit": 12150, "Ġopens": 12151, "Ġgent": 12152, "Ġjoy": 12153, "rence": 12154, "ĠGeorgia": 12155, "ĠBroad": 12156, "mma": 12157, "âĤ": 12158, "pf": 12159, "omo": 12160, "Ġliterally": 12161, "Īĺ": 12162, "metric": 12163, "Ġbars": 12164, "zed": 12165, "ĠIsraeli": 12166, "Ġformal": 12167, "identifier": 12168, "ĠDeath": 12169, "Ġdeclare": 12170, "arms": 12171, "Ġconsequences": 12172, "tools": 12173, "People": 12174, "ĠWhich": 12175, "ë¥": 12176, "ĠPolit": 12177, "Ġleaf": 12178, "ĠIss": 12179, "logout": 12180, "acht": 12181, "Angle": 12182, "sin": 12183, "chart": 12184, "Basic": 12185, "ĠBrazil": 12186, "Ð°Ð»": 12187, "ĠLy": 12188, "Ġouter": 12189, "Ġrelief": 12190, "lap": 12191, "quer": 12192, "heap": 12193, "Ġcombine": 12194, "ĠRose": 12195, "owers": 12196, "Ġprocedures": 12197, "ĠSort": 12198, "anim": 12199, "variant": 12200, "ehicle": 12201, "Ġsigning": 12202, "Primary": 12203, "currency": 12204, "Ġsexe": 12205, "oen": 12206, "eman": 12207, "Ġimpressive": 12208, "('_": 12209, "Ġslice": 12210, "(':": 12211, "Ġunderstood": 12212, "His": 12213, "Ġinformed": 12214, "Ġnick": 12215, "hd": 12216, "Ġelections": 12217, "ĠSanta": 12218, "ĠCoast": 12219, "inciple": 12220, "born": 12221, "uta": 12222, "Ġlicensed": 12223, "Cr": 12224, "Ġbread": 12225, "ĠHouston": 12226, "Ġnod": 12227, "Ġhopes": 12228, "Ġguilty": 12229, "Ġrose": 12230, "Tip": 12231, "ĠFC": 12232, "During": 12233, "Ġdefensive": 12234, "km": 12235, ")>": 12236, "archive": 12237, "ycling": 12238, "-o": 12239, "ĠWebsite": 12240, "AMP": 12241, "ishment": 12242, "Ġdoctors": 12243, "Direct": 12244, "ieren": 12245, "yo": 12246, "ĠProgress": 12247, "Ġzum": 12248, "Ġmemor": 12249, "ĠED": 12250, "Ġjur": 12251, "Expr": 12252, "('%": 12253, "pointer": 12254, "Ġestimate": 12255, "ĠGreg": 12256, "ĠiOS": 12257, "Ġmens": 12258, "Ġrefused": 12259, "Ġprecision": 12260, "isch": 12261, "Cloud": 12262, "Ġrising": 12263, "Ġscenes": 12264, "people": 12265, "Ġrecon": 12266, "ĠFun": 12267, "Ġbless": 12268, "ĠUpdated": 12269, "Ã¼n": 12270, "ĠĠĠĠĠĠĠĠĠĠĠĠčĊ": 12271, "pection": 12272, "Release": 12273, "Ġcounsel": 12274, "urd": 12275, "ivot": 12276, "Ġhence": 12277, "ĠNAS": 12278, "Ġopposed": 12279, "unknown": 12280, "ĠChair": 12281, "failed": 12282, "Ġwriters": 12283, "ÃŃt": 12284, "}:": 12285, "ĠBat": 12286, "Ġconverted": 12287, "eding": 12288, "placement": 12289, "ĠHost": 12290, "Sound": 12291, "Ð¸Ð¼": 12292, "Ġsought": 12293, "mid": 12294, "Ġsalary": 12295, "ogg": 12296, "bul": 12297, "Ġwir": 12298, "validator": 12299, "ĠBattle": 12300, "Ä±n": 12301, "Trump": 12302, "dot": 12303, "Ġcontinu": 12304, "was": 12305, "Ġfraud": 12306, "mitter": 12307, "GA": 12308, "Ġtournament": 12309, "exion": 12310, "centage": 12311, "ĠKorean": 12312, "Ġkit": 12313, "ĠStruct": 12314, "Ġore": 12315, "ĠDragon": 12316, "Ġexplanation": 12317, "ĠDrive": 12318, "ĠTraining": 12319, "big": 12320, "ologist": 12321, "ennis": 12322, "Ġchicken": 12323, "ĠĠĠĠĠĠĠĠĠĠĊ": 12324, "ãģ§": 12325, "Ġpeak": 12326, "Ġdrinking": 12327, "Ġencode": 12328, "malloc": 12329, "including": 12330, "Ġprinciples": 12331, "ĠMah": 12332, "storage": 12333, "Ġkeyword": 12334, "%;": 12335, "Ġtrained": 12336, "ĠBoy": 12337, "parameter": 12338, "Ġsuite": 12339, "Ġthousand": 12340, "Ġcoordinate": 12341, "generated": 12342, "Ġadmitted": 12343, "Ġswim": 12344, "union": 12345, "Na": 12346, "ĠRoyal": 12347, "Ġvital": 12348, "raction": 12349, "Ġpreced": 12350, "Ġhorizontal": 12351, "Ġsmoke": 12352, "ÐĴ": 12353, "FB": 12354, "ĠResources": 12355, "rolling": 12356, "Ġpasses": 12357, "ĠNum": 12358, "rotate": 12359, "\\\",": 12360, "Ġsensitive": 12361, "Ġtall": 12362, "iy": 12363, "âĢĶâĢĶâĢĶâĢĶ": 12364, "brid": 12365, "Ġcircuit": 12366, "atan": 12367, "Ġdriven": 12368, "Ġvoted": 12369, "Ġeducational": 12370, "Ġinteraction": 12371, "abetes": 12372, "Ġtone": 12373, "Ġmerely": 12374, "Ġìŀ": 12375, "vely": 12376, "#+#+": 12377, "articles": 12378, "ĠSouthern": 12379, "Ġstronger": 12380, "ĠGiven": 12381, "ĠEric": 12382, "ĠIR": 12383, "abstract": 12384, "Under": 12385, "nable": 12386, "Ġincrement": 12387, "oven": 12388, "Ġcoin": 12389, "Ġsuffered": 12390, "'].\"": 12391, "ĠQueen": 12392, "Ġmeetings": 12393, "Ġentering": 12394, "Ġalongside": 12395, "itals": 12396, "Ġfoundation": 12397, "pcion": 12398, "icking": 12399, "Ġoutputs": 12400, "/B": 12401, "Ġenthus": 12402, "-bl": 12403, "Face": 12404, "Ġinteract": 12405, "Ġweird": 12406, "Mount": 12407, "rell": 12408, "udents": 12409, "Ġrequirement": 12410, "ĠSus": 12411, "Ġelected": 12412, "reference": 12413, "ĠME": 12414, "ilton": 12415, "Ġtries": 12416, "Ġtipo": 12417, "Ġmountain": 12418, "Ġpounds": 12419, "Ġ[...": 12420, "exists": 12421, "Ġflying": 12422, "xiety": 12423, "uno": 12424, "Ġseats": 12425, "!)": 12426, "orce": 12427, "Ġindicated": 12428, "Ġassignment": 12429, "imiento": 12430, "ĠFrame": 12431, "inery": 12432, "_)": 12433, "messages": 12434, "ĠMean": 12435, "ĠMuseum": 12436, "attach": 12437, "ĠPalestin": 12438, "Ġcasual": 12439, "emen": 12440, "ĠCirc": 12441, "etric": 12442, "/P": 12443, "Ġgit": 12444, "Ġpenalty": 12445, "orph": 12446, "ourses": 12447, "Ġsuperior": 12448, "ĠDam": 12449, "ĠSeattle": 12450, "ĠAk": 12451, "Ġgrass": 12452, "Ġguns": 12453, "ĠKevin": 12454, "ĠAh": 12455, "oped": 12456, "columns": 12457, "arguments": 12458, "ĠDefense": 12459, "Simple": 12460, "Ġdeaths": 12461, "Ġextensive": 12462, "ĠStill": 12463, "ĠAgency": 12464, "Ġperforming": 12465, "FX": 12466, "Ġusuario": 12467, "Side": 12468, "odos": 12469, "aptop": 12470, "Ġcredentials": 12471, "atient": 12472, "ĠDisney": 12473, "Ġai": 12474, "Ġchip": 12475, "Ġvolt": 12476, "%%%%%%%%%%%%%%%%": 12477, "Ġbelief": 12478, "ĠCivil": 12479, "Navigation": 12480, "Ġreveal": 12481, "Ġviolent": 12482, "ĠFil": 12483, "Ġcatalog": 12484, "emed": 12485, "scan": 12486, "Ġconstitution": 12487, "Country": 12488, "topic": 12489, "uetooth": 12490, "MIN": 12491, "yt": 12492, "Ġdistribute": 12493, "ĠDet": 12494, "ombok": 12495, "Ġtort": 12496, "aco": 12497, "Using": 12498, "ĠBrand": 12499, "wall": 12500, "ĠCommunic": 12501, "ĠRange": 12502, "/i": 12503, "ĠTaylor": 12504, "cost": 12505, "Ġresponded": 12506, "ĠTheme": 12507, "nce": 12508, "Ġfeaturing": 12509, "Returns": 12510, "ĠKr": 12511, "Ġnam": 12512, "Testing": 12513, "yal": 12514, "mates": 12515, "Ġevaluation": 12516, "ĠPacific": 12517, "Ġcant": 12518, "ĠRos": 12519, "Ġfet": 12520, "gal": 12521, "ĠJoin": 12522, "ĠCatholic": 12523, "ifestyle": 12524, "ancement": 12525, "Ġmerc": 12526, "etermin": 12527, "Ġoverflow": 12528, "Ġbottle": 12529, "ificial": 12530, "Ġcoord": 12531, "claration": 12532, "Ġconj": 12533, "oku": 12534, "conditions": 12535, "ulum": 12536, "Ġgenu": 12537, "ĠHero": 12538, "Ġunexpected": 12539, "Ġka": 12540, "ĠCould": 12541, "ĠPhotos": 12542, "Ġconfident": 12543, "Ġdetected": 12544, "deg": 12545, "Ġstrongly": 12546, "Ġ):": 12547, "Ġlect": 12548, "ursive": 12549, "ĠWeight": 12550, "Ġentertainment": 12551, "GS": 12552, "Ġmistake": 12553, "DL": 12554, "earning": 12555, "Limit": 12556, "issions": 12557, "irty": 12558, "Del": 12559, "Ġunderlying": 12560, "prene": 12561, "Ġjaw": 12562, "ĠDI": 12563, "peer": 12564, "Ġobjective": 12565, "Ġdeposit": 12566, "Ġkon": 12567, "Ġesp": 12568, "Ġfranch": 12569, "/e": 12570, "Parallel": 12571, "Ġscored": 12572, "ĠHon": 12573, "ĠVill": 12574, "iga": 12575, "Ġanticip": 12576, "ĠOpt": 12577, "Ġdescribes": 12578, "wan": 12579, "mount": 12580, "Ġmonitoring": 12581, "Ġtout": 12582, "},{": 12583, "................................": 12584, "Ġcust": 12585, "------": 12586, "Ġatmosphere": 12587, "PAR": 12588, "orte": 12589, "ĠIron": 12590, "-point": 12591, "Ġafraid": 12592, "enta": 12593, "Ġengage": 12594, "ĠAnth": 12595, "ĠUl": 12596, "Ġbab": 12597, "Ġcareful": 12598, "ãģĦ": 12599, "Ġcrucial": 12600, "Ġcalculated": 12601, "ĠSA": 12602, "DX": 12603, "inded": 12604, "Ġjet": 12605, "ĠEngineering": 12606, "enz": 12607, "Ġpublication": 12608, "Ġ###": 12609, "Ġfaced": 12610, "raham": 12611, "ĠCapt": 12612, "Ġloans": 12613, "ĠFish": 12614, "[][]": 12615, "Ġintegrity": 12616, "ĠCourse": 12617, "Ġfacilit": 12618, "Ġembr": 12619, "ĠNg": 12620, "Ġmanufacturers": 12621, "Ġproven": 12622, "Ġalarm": 12623, "ĠÂ§": 12624, "Ġcommonly": 12625, "icos": 12626, "ĠStation": 12627, "}).": 12628, "ĠFilm": 12629, "wi": 12630, "Ġengaged": 12631, "Ġgovernments": 12632, "Ġages": 12633, "('--": 12634, "ĠfÃ¶r": 12635, "ĠProfessor": 12636, "Ġhydro": 12637, "Push": 12638, "Ġorganized": 12639, "Ã©m": 12640, "pb": 12641, "Article": 12642, "Ġremoval": 12643, "Ġauthentication": 12644, "ĠFR": 12645, "lide": 12646, "Ġpleasure": 12647, "apol": 12648, "Ġpartition": 12649, "ĠSide": 12650, "Ġcrimes": 12651, "Ġdemo": 12652, "holders": 12653, "ĠPakistan": 12654, "Ġexpectations": 12655, "hes": 12656, "inois": 12657, "Ġmolec": 12658, "andal": 12659, "Ġnations": 12660, "inen": 12661, "OCK": 12662, "SB": 12663, "verty": 12664, "Ã¡t": 12665, "Guid": 12666, "nom": 12667, "Ġconclusion": 12668, "Ġemit": 12669, "bec": 12670, "ĉĉĉĉĠ": 12671, "Ġintellect": 12672, "Ġbrew": 12673, "Fire": 12674, "Ġadmit": 12675, "Ġarbit": 12676, "Ġarrang": 12677, "Mail": 12678, "ĠNative": 12679, "Cur": 12680, "Ġconvent": 12681, "Ġprinted": 12682, "Ġconvenient": 12683, ".ar": 12684, "mock": 12685, "ĠAdministration": 12686, "ãģ¾": 12687, "Ġelectron": 12688, "nh": 12689, "Ġsupplies": 12690, "Ġvisiting": 12691, "ahl": 12692, "Ġpowder": 12693, "Ġultimate": 12694, "Ġorientation": 12695, "utas": 12696, "phones": 12697, "ĠOperation": 12698, "/T": 12699, "Ġairport": 12700, "Ġphenomen": 12701, "audio": 12702, "Ġmai": 12703, "hu": 12704, "alling": 12705, "roduction": 12706, "ĠTransport": 12707, "Ġfewer": 12708, "ì§": 12709, "ÐºÐ¸": 12710, "Age": 12711, "FIN": 12712, "ĠìĿ": 12713, "ĠAttribute": 12714, "groups": 12715, "erk": 12716, "atto": 12717, "ĠSir": 12718, "large": 12719, "IGH": 12720, "quent": 12721, "Ġvirus": 12722, "Ġretro": 12723, "Ġimper": 12724, "Ġvice": 12725, "Ġoffense": 12726, "iste": 12727, "Ġê°": 12728, "Gu": 12729, "Ġrape": 12730, "ĠDavis": 12731, "Ġoverwhel": 12732, "Private": 12733, "even": 12734, "chr": 12735, "Ġapplies": 12736, "Ġcontribute": 12737, "Lines": 12738, "ĠAfghan": 12739, "ĠSL": 12740, "season": 12741, "CU": 12742, "Ġintroduction": 12743, "Åĳ": 12744, "Ġnewspaper": 12745, "âĢĶand": 12746, "Ġini": 12747, "Ġdiverse": 12748, "ĠUr": 12749, "Agent": 12750, "Ġbull": 12751, "Ġincredibly": 12752, "ĠTrust": 12753, "={(": 12754, "ĠPod": 12755, "disc": 12756, "alam": 12757, "ĠIV": 12758, "âĻ": 12759, "ividual": 12760, "phi": 12761, "added": 12762, "Ġdifficulty": 12763, "Ġcompact": 12764, "cers": 12765, "Ġquit": 12766, "Ġpou": 12767, "Switch": 12768, "irs": 12769, "ĠKind": 12770, "Ġstreaming": 12771, "}',": 12772, "SW": 12773, "Ġstead": 12774, "oca": 12775, "Ġprovince": 12776, "Ġcolspan": 12777, "Ġpersonnel": 12778, "Ġproducer": 12779, "Ġeverywhere": 12780, "ÐŁ": 12781, "bsolute": 12782, "activate": 12783, "ĠBuilding": 12784, "ĠSanders": 12785, "////////////": 12786, "({\"": 12787, "Ġjew": 12788, "Ġrestrictions": 12789, "labels": 12790, "Ġwaves": 12791, "Ġconfront": 12792, "Ġmeasured": 12793, "otton": 12794, "Ġshoulder": 12795, "aska": 12796, "+#": 12797, "ĠĠĠĠĠĠĠĠĊĠĠĠĠĠĠĠĠĊ": 12798, "Ġtroops": 12799, "ĠUnd": 12800, "wich": 12801, "Ġnous": 12802, "sb": 12803, "Ġcommunications": 12804, "Export": 12805, "ths": 12806, "interpret": 12807, "ĠSpirit": 12808, "edges": 12809, "ĠEM": 12810, "tit": 12811, "ĠThrough": 12812, "Ġbio": 12813, "orne": 12814, "ĠZealand": 12815, "identity": 12816, "ĠBang": 12817, "Library": 12818, "Ġheavily": 12819, "ilon": 12820, "Ġdipl": 12821, "Ġrotate": 12822, "puts": 12823, "Ġmayor": 12824, "ĠNorthern": 12825, "alc": 12826, "Ġcapabilities": 12827, "Ġvibr": 12828, "ĠSu": 12829, "ĠReset": 12830, "Ġcig": 12831, "ĠBand": 12832, "ĠFactory": 12833, "ĠArizona": 12834, "opher": 12835, "Ġconscious": 12836, "ĠÃ¶": 12837, "ĠFac": 12838, "ĠBible": 12839, "wen": 12840, "Ġunn": 12841, "ĠStaff": 12842, "ĠInn": 12843, "Ġmechanism": 12844, "ĠMembers": 12845, "'].'": 12846, "oids": 12847, "Ġautomatic": 12848, "Ġchances": 12849, "Ð¶": 12850, "Ġcomplicated": 12851, "ahoo": 12852, "Win": 12853, "Ġtape": 12854, "irus": 12855, "izon": 12856, "onomy": 12857, "(\"_": 12858, ":.": 12859, "Ġconstraints": 12860, "puty": 12861, "TD": 12862, "Ġguitar": 12863, "ĠJews": 12864, "Ġfiction": 12865, "âĶĢâĶĢ": 12866, "Ġpropag": 12867, "Ġachieved": 12868, "Ġnurs": 12869, "Ġbehaviour": 12870, "Ġcols": 12871, "ismo": 12872, "Ġfemin": 12873, "Ġchallenging": 12874, "encil": 12875, "Ġcaptured": 12876, "ĠDou": 12877, "ĠTurkey": 12878, "panies": 12879, "Ġreputation": 12880, "Ġeligible": 12881, "protocol": 12882, "idas": 12883, "Ġfinance": 12884, "-per": 12885, "HA": 12886, "duration": 12887, "Ġinvent": 12888, "Ġrestart": 12889, "rition": 12890, "iert": 12891, "Ġmodification": 12892, "bank": 12893, "$/": 12894, "ĠMiller": 12895, "Ġsacr": 12896, "security": 12897, "Ġpose": 12898, "ĠBrad": 12899, "Ġfitness": 12900, "Ġannouncement": 12901, "Ġserves": 12902, "need": 12903, "Ġgeometry": 12904, "ARS": 12905, "andidate": 12906, "Week": 12907, "adies": 12908, "?>\"": 12909, "Ġeiner": 12910, "Ġweekly": 12911, "Ġmigrations": 12912, "Ġasks": 12913, "Ġfalls": 12914, "Ġhyper": 12915, "Ġvolatile": 12916, "Ġtwenty": 12917, "Det": 12918, "-mod": 12919, "Ġsettlement": 12920, "Ġcontracts": 12921, "nome": 12922, "Bad": 12923, "ĠBrian": 12924, "!!!!": 12925, "Ġhack": 12926, "HR": 12927, "ĠJordan": 12928, "iza": 12929, "ĠÂł": 12930, "ĠSher": 12931, "ĠDub": 12932, "ĠRound": 12933, "Ġvie": 12934, "Ġappl": 12935, "ĠLP": 12936, "regon": 12937, "Ġanchor": 12938, "aca": 12939, "Ã¸r": 12940, "Ġade": 12941, "anchor": 12942, "quee": 12943, "Ġtargeted": 12944, "Ġlaid": 12945, "vet": 12946, "ĠOrigin": 12947, "Ant": 12948, "expect": 12949, "ĠMajor": 12950, "Ġinch": 12951, "Compar": 12952, "Ġillness": 12953, "ĠIndepend": 12954, "uuid": 12955, "ĠAvenue": 12956, "isan": 12957, "Ġphrase": 12958, "\")[": 12959, "Ġprovision": 12960, "Ġconcentr": 12961, "ĠUt": 12962, "()+": 12963, "Ġnas": 12964, "!,": 12965, "ĠRobin": 12966, "iations": 12967, "atitude": 12968, "ĠWithout": 12969, "ekt": 12970, "reement": 12971, "ĠRegion": 12972, "KN": 12973, "encoding": 12974, "Ġ***": 12975, "projects": 12976, "Ġcheese": 12977, "aro": 12978, "Ġconsists": 12979, "ureau": 12980, "Ġsoil": 12981, "Ġflavor": 12982, "ÐµÐ½Ð¸Ðµ": 12983, "Ġretrieve": 12984, "Ġbelongs": 12985, "absolute": 12986,
[...]
